{
  "version": "1.0",
  "truncation": null,
  "padding": null,
  "added_tokens": [
    {
      "id": 0,
      "content": "[UNK]",
      "single_word": false,
      "lstrip": false,
      "rstrip": false,
      "normalized": false,
      "special": true
    },
    {
      "id": 1,
      "content": "[PAD]",
      "single_word": false,
      "lstrip": false,
      "rstrip": false,
      "normalized": false,
      "special": true
    },
    {
      "id": 2,
      "content": "[CLS]",
      "single_word": false,
      "lstrip": false,
      "rstrip": false,
      "normalized": false,
      "special": true
    },
    {
      "id": 3,
      "content": "[SEP]",
      "single_word": false,
      "lstrip": false,
      "rstrip": false,
      "normalized": false,
      "special": true
    },
    {
      "id": 4,
      "content": "[MASK]",
      "single_word": false,
      "lstrip": false,
      "rstrip": false,
      "normalized": false,
      "special": true
    }
  ],
  "normalizer": {
    "type": "BertNormalizer",
    "clean_text": true,
    "handle_chinese_chars": true,
    "strip_accents": true,
    "lowercase": true
  },
  "pre_tokenizer": {
    "type": "BertPreTokenizer"
  },
  "post_processor": null,
  "decoder": null,
  "model": {
    "type": "WordPiece",
    "unk_token": "[UNK]",
    "continuing_subword_prefix": "##",
    "max_input_chars_per_word": 100,
    "vocab": {
      "[UNK]": 0,
      "[PAD]": 1,
      "[CLS]": 2,
      "[SEP]": 3,
      "[MASK]": 4,
      "!": 5,
      "\"": 6,
      "#": 7,
      "$": 8,
      "&": 9,
      "'": 10,
      "(": 11,
      ")": 12,
      "*": 13,
      ",": 14,
      "-": 15,
      ".": 16,
      "/": 17,
      "0": 18,
      "1": 19,
      "2": 20,
      "3": 21,
      "4": 22,
      "5": 23,
      "6": 24,
      "7": 25,
      "8": 26,
      "9": 27,
      ":": 28,
      ";": 29,
      "=": 30,
      "?": 31,
      "\\": 32,
      "_": 33,
      "a": 34,
      "b": 35,
      "c": 36,
      "d": 37,
      "e": 38,
      "f": 39,
      "g": 40,
      "h": 41,
      "i": 42,
      "j": 43,
      "k": 44,
      "l": 45,
      "m": 46,
      "n": 47,
      "o": 48,
      "p": 49,
      "q": 50,
      "r": 51,
      "s": 52,
      "t": 53,
      "u": 54,
      "v": 55,
      "w": 56,
      "x": 57,
      "y": 58,
      "z": 59,
      "##b": 60,
      "##o": 61,
      "##r": 62,
      "##e": 63,
      "##p": 64,
      "##y": 65,
      "##i": 66,
      "##c": 67,
      "##t": 68,
      "##a": 69,
      "##l": 70,
      "##n": 71,
      "##s": 72,
      "##m": 73,
      "##h": 74,
      "##6": 75,
      "##4": 76,
      "##u": 77,
      "##w": 78,
      "##g": 79,
      "##d": 80,
      "##k": 81,
      "##v": 82,
      "##f": 83,
      "##j": 84,
      "##z": 85,
      "##q": 86,
      "##x": 87,
      "##9": 88,
      "##3": 89,
      "##8": 90,
      "##2": 91,
      "##0": 92,
      "##1": 93,
      "##7": 94,
      "##5": 95,
      "##er": 96,
      "th": 97,
      "##in": 98,
      "##es": 99,
      "##on": 100,
      "##or": 101,
      "the": 102,
      "##an": 103,
      "##ed": 104,
      "##ar": 105,
      "##en": 106,
      "##at": 107,
      "in": 108,
      "##ing": 109,
      "##al": 110,
      "to": 111,
      "##it": 112,
      "##st": 113,
      "##ic": 114,
      "of": 115,
      "##ro": 116,
      "an": 117,
      "##ay": 118,
      "##il": 119,
      "##ion": 120,
      "##as": 121,
      "##ou": 122,
      "##el": 123,
      "##is": 124,
      "##ter": 125,
      "##ec": 126,
      "##et": 127,
      "##id": 128,
      "##om": 129,
      "##re": 130,
      "on": 131,
      "and": 132,
      "##ent": 133,
      "st": 134,
      "for": 135,
      "##ac": 136,
      "##ur": 137,
      "re": 138,
      "##ad": 139,
      "##ir": 140,
      "##ol": 141,
      "##am": 142,
      "##ts": 143,
      "##ig": 144,
      "##ot": 145,
      "##le": 146,
      "##day": 147,
      "##ers": 148,
      "##ut": 149,
      "39": 150,
      "##ill": 151,
      "##ve": 152,
      "ne": 153,
      "##ow": 154,
      "##us": 155,
      "##ch": 156,
      "ch": 157,
      "##th": 158,
      "##est": 159,
      "com": 160,
      "##ra": 161,
      "as": 162,
      "##ver": 163,
      "##un": 164,
      "##ation": 165,
      "at": 166,
      "##im": 167,
      "be": 168,
      "##ly": 169,
      "##os": 170,
      "de": 171,
      "pro": 172,
      "##ith": 173,
      "is": 174,
      "with": 175,
      "pr": 176,
      "##ak": 177,
      "##igh": 178,
      "sh": 179,
      "##ag": 180,
      "##ce": 181,
      "that": 182,
      "##ul": 183,
      "con": 184,
      "##ear": 185,
      "new": 186,
      "##and": 187,
      "wh": 188,
      "ap": 189,
      "un": 190,
      "##ess": 191,
      "##ri": 192,
      "##ld": 193,
      "sa": 194,
      "qu": 195,
      "##op": 196,
      "af": 197,
      "##ters": 198,
      "sp": 199,
      "le": 200,
      "##ist": 201,
      "##ain": 202,
      "##oc": 203,
      "ex": 204,
      "##ast": 205,
      "##oun": 206,
      "it": 207,
      "##em": 208,
      "##ect": 209,
      "##ks": 210,
      "its": 211,
      "pl": 212,
      "##ap": 213,
      "##all": 214,
      "##ian": 215,
      "se": 216,
      "by": 217,
      "##ate": 218,
      "us": 219,
      "al": 220,
      "said": 221,
      "##uters": 222,
      "##um": 223,
      "comp": 224,
      "en": 225,
      "##ia": 226,
      "##oo": 227,
      "##ft": 228,
      "##up": 229,
      "has": 230,
      "reuters": 231,
      "##ies": 232,
      "ag": 233,
      "##ore": 234,
      "##rom": 235,
      "##our": 236,
      "was": 237,
      "##iv": 238,
      "##ust": 239,
      "off": 240,
      "##ost": 241,
      "from": 242,
      "##ight": 243,
      "wor": 244,
      "##ort": 245,
      "##00": 246,
      "he": 247,
      "##ack": 248,
      "##ity": 249,
      "##ment": 250,
      "we": 251,
      "up": 252,
      "will": 253,
      "##ard": 254,
      "mon": 255,
      "##uc": 256,
      "##ip": 257,
      "##art": 258,
      "fr": 259,
      "##ell": 260,
      "##ial": 261,
      "##ine": 262,
      "after": 263,
      "ac": 264,
      "his": 265,
      "##esday": 266,
      "cl": 267,
      "##ug": 268,
      "##ive": 269,
      "##ud": 270,
      "year": 271,
      "lt": 272,
      "##ie": 273,
      "ha": 274,
      "over": 275,
      "##end": 276,
      "##ab": 277,
      "##ry": 278,
      "op": 279,
      "fir": 280,
      "##ob": 281,
      "##if": 282,
      "inc": 283,
      "gt": 284,
      "am": 285,
      "sec": 286,
      "exp": 287,
      "##ens": 288,
      "##ice": 289,
      "mar": 290,
      "##oft": 291,
      "##qu": 292,
      "##ere": 293,
      "res": 294,
      "rep": 295,
      "int": 296,
      "##ace": 297,
      "##ions": 298,
      "##ould": 299,
      "inter": 300,
      "##ge": 301,
      "ser": 302,
      "ab": 303,
      "##are": 304,
      "##ans": 305,
      "tw": 306,
      "##ub": 307,
      "win": 308,
      "ind": 309,
      "have": 310,
      "quot": 311,
      "go": 312,
      "or": 313,
      "##ays": 314,
      "##ick": 315,
      "##ning": 316,
      "ar": 317,
      "are": 318,
      "##any": 319,
      "##ant": 320,
      "out": 321,
      "rec": 322,
      "##ond": 323,
      "their": 324,
      "##ke": 325,
      "##ord": 326,
      "##ong": 327,
      "gro": 328,
      "co": 329,
      "ad": 330,
      "##out": 331,
      "fin": 332,
      "two": 333,
      "tr": 334,
      "##ame": 335,
      "br": 336,
      "bl": 337,
      "pe": 338,
      "##ish": 339,
      "##ue": 340,
      "##ome": 341,
      "no": 342,
      "##arg": 343,
      "sc": 344,
      "first": 345,
      "##illion": 346,
      "##mp": 347,
      "##ree": 348,
      "##ach": 349,
      "##ail": 350,
      "per": 351,
      "cr": 352,
      "##ile": 353,
      "##ign": 354,
      "but": 355,
      "##old": 356,
      "##ork": 357,
      "##ide": 358,
      "##ime": 359,
      "ira": 360,
      "app": 361,
      "world": 362,
      "iraq": 363,
      "##ors": 364,
      "##ich": 365,
      "##ros": 366,
      "more": 367,
      "not": 368,
      "##ident": 369,
      "##ake": 370,
      "lead": 371,
      "##og": 372,
      "##oll": 373,
      "cont": 374,
      "##ous": 375,
      "bus": 376,
      "pres": 377,
      "dis": 378,
      "##ek": 379,
      "##amp": 380,
      "again": 381,
      "200": 382,
      "##ber": 383,
      "inv": 384,
      "el": 385,
      "##age": 386,
      "man": 387,
      "##ices": 388,
      "##own": 389,
      "##urs": 390,
      "##ase": 391,
      "##ass": 392,
      "te": 393,
      "la": 394,
      "##ations": 395,
      "##od": 396,
      "##ff": 397,
      "this": 398,
      "##rop": 399,
      "can": 400,
      "##ester": 401,
      "fl": 402,
      "##ets": 403,
      "##ound": 404,
      "one": 405,
      "##iz": 406,
      "min": 407,
      "##ates": 408,
      "##ep": 409,
      "cor": 410,
      "ph": 411,
      "##ure": 412,
      "intern": 413,
      "##act": 414,
      "##av": 415,
      "eu": 416,
      "company": 417,
      "##iday": 418,
      "wed": 419,
      "monday": 420,
      "oil": 421,
      "high": 422,
      "##one": 423,
      "president": 424,
      "##ary": 425,
      "##ock": 426,
      "##hn": 427,
      "##der": 428,
      "tu": 429,
      "wedn": 430,
      "wednesday": 431,
      "##ance": 432,
      "tuesday": 433,
      "all": 434,
      "##ict": 435,
      "than": 436,
      "play": 437,
      "##ursday": 438,
      "acc": 439,
      "##ory": 440,
      "thursday": 441,
      "##ton": 442,
      "##ite": 443,
      "ear": 444,
      "sun": 445,
      "##ank": 446,
      "##ull": 447,
      "rel": 448,
      "mic": 449,
      "##her": 450,
      "##iss": 451,
      "##ence": 452,
      "war": 453,
      "##mer": 454,
      "##ount": 455,
      "hel": 456,
      "against": 457,
      "week": 458,
      "friday": 459,
      "##anc": 460,
      "##ose": 461,
      "##ated": 462,
      "##ade": 463,
      "str": 464,
      "##ational": 465,
      "##arter": 466,
      "air": 467,
      "##ited": 468,
      "mark": 469,
      "##ood": 470,
      "into": 471,
      "last": 472,
      "##earch": 473,
      "att": 474,
      "##ther": 475,
      "invest": 476,
      "dec": 477,
      "corp": 478,
      "mo": 479,
      "ann": 480,
      "##gh": 481,
      "##ey": 482,
      "report": 483,
      "they": 484,
      "##urn": 485,
      "about": 486,
      "micros": 487,
      "##etw": 488,
      "peop": 489,
      "kill": 490,
      "offic": 491,
      "so": 492,
      "##ican": 493,
      "york": 494,
      "##ven": 495,
      "bu": 496,
      "serv": 497,
      "pol": 498,
      "##ason": 499,
      "prof": 500,
      "sup": 501,
      "ret": 502,
      "sl": 503,
      "##pt": 504,
      "quarter": 505,
      "##oin": 506,
      "who": 507,
      "yester": 508,
      "yesterday": 509,
      "def": 510,
      "li": 511,
      "##als": 512,
      "##und": 513,
      "three": 514,
      "elect": 515,
      "end": 516,
      "me": 517,
      "##orts": 518,
      "microsoft": 519,
      "sy": 520,
      "##hing": 521,
      "##les": 522,
      "back": 523,
      "million": 524,
      "##duc": 525,
      "comm": 526,
      "were": 527,
      "game": 528,
      "##gr": 529,
      "car": 530,
      "##ware": 531,
      "gover": 532,
      "##man": 533,
      "open": 534,
      "mil": 535,
      "shar": 536,
      "sal": 537,
      "secur": 538,
      "des": 539,
      "##ina": 540,
      "tec": 541,
      "cons": 542,
      "govern": 543,
      "##ash": 544,
      "set": 545,
      "##xt": 546,
      "team": 547,
      "##oss": 548,
      "bro": 549,
      "##vel": 550,
      "##ote": 551,
      "been": 552,
      "##oy": 553,
      "##uss": 554,
      "time": 555,
      "##ition": 556,
      "##ocks": 557,
      "sat": 558,
      "amer": 559,
      "official": 560,
      "##ang": 561,
      "##reat": 562,
      "group": 563,
      "##ical": 564,
      "##orm": 565,
      "had": 566,
      "says": 567,
      "four": 568,
      "##its": 569,
      "mak": 570,
      "##ook": 571,
      "##ird": 572,
      "##ected": 573,
      "##wn": 574,
      "##ix": 575,
      "##ire": 576,
      "month": 577,
      "##ib": 578,
      "##tle": 579,
      "may": 580,
      "part": 581,
      "##eral": 582,
      "##ral": 583,
      "united": 584,
      "##land": 585,
      "##ounc": 586,
      "government": 587,
      "plan": 588,
      "down": 589,
      "##cent": 590,
      "##ower": 591,
      "news": 592,
      "when": 593,
      "could": 594,
      "##ased": 595,
      "##ise": 596,
      "##line": 597,
      "next": 598,
      "second": 599,
      "sunday": 600,
      "soft": 601,
      "stocks": 602,
      "##ating": 603,
      "would": 604,
      "sur": 605,
      "prices": 606,
      "sou": 607,
      "##atch": 608,
      "ma": 609,
      "europ": 610,
      "##ting": 611,
      "su": 612,
      "europe": 613,
      "##ugh": 614,
      "##ely": 615,
      "security": 616,
      "##ines": 617,
      "big": 618,
      "ter": 619,
      "##ped": 620,
      "10": 621,
      "cap": 622,
      "par": 623,
      "today": 624,
      "years": 625,
      "##olog": 626,
      "red": 627,
      "people": 628,
      "pre": 629,
      "top": 630,
      "season": 631,
      "##able": 632,
      "nor": 633,
      "##con": 634,
      "percent": 635,
      "minist": 636,
      "##az": 637,
      "work": 638,
      "which": 639,
      "full": 640,
      "##ics": 641,
      "count": 642,
      "ass": 643,
      "mus": 644,
      "afp": 645,
      "record": 646,
      "imp": 647,
      "##iness": 648,
      "col": 649,
      "##tion": 650,
      "##ah": 651,
      "software": 652,
      "##ents": 653,
      "bank": 654,
      "gen": 655,
      "reg": 656,
      "##enc": 657,
      "tal": 658,
      "business": 659,
      "##co": 660,
      "med": 661,
      "day": 662,
      "bec": 663,
      "run": 664,
      "third": 665,
      "market": 666,
      "milit": 667,
      "##ows": 668,
      "champ": 669,
      "brit": 670,
      "##ph": 671,
      "inf": 672,
      "##els": 673,
      "conf": 674,
      "del": 675,
      "deal": 676,
      "night": 677,
      "sw": 678,
      "dem": 679,
      "##ubl": 680,
      "##ital": 681,
      "do": 682,
      "##ier": 683,
      "##air": 684,
      "produc": 685,
      "cour": 686,
      "vict": 687,
      "eng": 688,
      "aust": 689,
      "internet": 690,
      "satur": 691,
      "techn": 692,
      "##hip": 693,
      "saturday": 694,
      "some": 695,
      "announc": 696,
      "##stem": 697,
      "sch": 698,
      "##ath": 699,
      "supp": 700,
      "call": 701,
      "##unch": 702,
      "##ings": 703,
      "dr": 704,
      "washing": 705,
      "##ement": 706,
      "china": 707,
      "##ally": 708,
      "ins": 709,
      "fed": 710,
      "fe": 711,
      "##ball": 712,
      "tri": 713,
      "jap": 714,
      "washington": 715,
      "japan": 716,
      "state": 717,
      "##ief": 718,
      "##ms": 719,
      "##ecut": 720,
      "rele": 721,
      "under": 722,
      "##ists": 723,
      "ir": 724,
      "##io": 725,
      "sales": 726,
      "pal": 727,
      "bo": 728,
      "##ged": 729,
      "##ws": 730,
      "netw": 731,
      "##uts": 732,
      "billion": 733,
      "minister": 734,
      "just": 735,
      "russ": 736,
      "bush": 737,
      "gl": 738,
      "##uring": 739,
      "take": 740,
      "econ": 741,
      "##omb": 742,
      "near": 743,
      "austral": 744,
      "econom": 745,
      "gu": 746,
      "##ild": 747,
      "##ins": 748,
      "##quote": 749,
      "system": 750,
      "technolog": 751,
      "##ied": 752,
      "fullquote": 753,
      "agre": 754,
      "sm": 755,
      "##ision": 756,
      "most": 757,
      "##ames": 758,
      "isra": 759,
      "##ved": 760,
      "fall": 761,
      "israel": 762,
      "2004": 763,
      "bar": 764,
      "targ": 765,
      "sign": 766,
      "##ves": 767,
      "##ger": 768,
      "##lear": 769,
      "start": 770,
      "jo": 771,
      "##eld": 772,
      "long": 773,
      "##ult": 774,
      "##ern": 775,
      "miss": 776,
      "post": 777,
      "##cess": 778,
      "international": 779,
      "##uter": 780,
      "buy": 781,
      "former": 782,
      "gr": 783,
      "grow": 784,
      "##orn": 785,
      "announced": 786,
      "say": 787,
      "tra": 788,
      "launch": 789,
      "profit": 790,
      "ra": 791,
      "##ough": 792,
      "rem": 793,
      "research": 794,
      "court": 795,
      "killed": 796,
      "job": 797,
      "gian": 798,
      "tro": 799,
      "head": 800,
      "##urr": 801,
      "##ons": 802,
      "chief": 803,
      "##ones": 804,
      "##ead": 805,
      "##ities": 806,
      "##ands": 807,
      "##oot": 808,
      "##aus": 809,
      "search": 810,
      "##ct": 811,
      "home": 812,
      "##ica": 813,
      "##istan": 814,
      "get": 815,
      "tel": 816,
      "lin": 817,
      "##ward": 818,
      "city": 819,
      "web": 820,
      "victory": 821,
      "officials": 822,
      "you": 823,
      "##ner": 824,
      "manag": 825,
      "000": 826,
      "kn": 827,
      "##led": 828,
      "vi": 829,
      "offer": 830,
      "help": 831,
      "##ron": 832,
      "south": 833,
      "##ert": 834,
      "tak": 835,
      "hal": 836,
      "if": 837,
      "service": 838,
      "##ious": 839,
      "bomb": 840,
      "##iam": 841,
      "oper": 842,
      "plans": 843,
      "other": 844,
      "##ok": 845,
      "##ague": 846,
      "##acks": 847,
      "larg": 848,
      "stri": 849,
      "##ble": 850,
      "##ince": 851,
      "##uch": 852,
      "maj": 853,
      "hit": 854,
      "host": 855,
      "states": 856,
      "reported": 857,
      "thro": 858,
      "target": 859,
      "computer": 860,
      "##way": 861,
      "##ants": 862,
      "bef": 863,
      "european": 864,
      "##ee": 865,
      "before": 866,
      "##ives": 867,
      "##ned": 868,
      "##ony": 869,
      "american": 870,
      "dep": 871,
      "indust": 872,
      "##ollar": 873,
      "##ual": 874,
      "##gle": 875,
      "national": 876,
      "technology": 877,
      "##aim": 878,
      "show": 879,
      "major": 880,
      "space": 881,
      "gre": 882,
      "bid": 883,
      "##ted": 884,
      "dollar": 885,
      "19": 886,
      "final": 887,
      "press": 888,
      "country": 889,
      "test": 890,
      "pay": 891,
      "cup": 892,
      "champions": 893,
      "beg": 894,
      "##ling": 895,
      "##ange": 896,
      "league": 897,
      "aut": 898,
      "##ures": 899,
      "reb": 900,
      "##tt": 901,
      "talks": 902,
      "canad": 903,
      "poin": 904,
      "oly": 905,
      "now": 906,
      "power": 907,
      "olymp": 908,
      "cal": 909,
      "north": 910,
      "network": 911,
      "sus": 912,
      "upd": 913,
      "##other": 914,
      "ib": 915,
      "##inian": 916,
      "##een": 917,
      "five": 918,
      "##velop": 919,
      "online": 920,
      "##lud": 921,
      "em": 922,
      "terr": 923,
      "expl": 924,
      "bel": 925,
      "##ont": 926,
      "goo": 927,
      "hop": 928,
      "prov": 929,
      "execut": 930,
      "coach": 931,
      "##ese": 932,
      "##nings": 933,
      "##enn": 934,
      "john": 935,
      "what": 936,
      "bat": 937,
      "develop": 938,
      "lat": 939,
      "##ember": 940,
      "ext": 941,
      "ref": 942,
      "palest": 943,
      "tick": 944,
      "her": 945,
      "mob": 946,
      "british": 947,
      "##vers": 948,
      "ste": 949,
      "expected": 950,
      "largest": 951,
      "ed": 952,
      "15": 953,
      "ant": 954,
      "cent": 955,
      "##ient": 956,
      "##ai": 957,
      "##ield": 958,
      "ro": 959,
      "publ": 960,
      "cost": 961,
      "palestinian": 962,
      "shares": 963,
      "india": 964,
      "##se": 965,
      "prot": 966,
      "strong": 967,
      "stre": 968,
      "##gy": 969,
      "accord": 970,
      "##ces": 971,
      "hol": 972,
      "music": 973,
      "##ium": 974,
      "##ene": 975,
      "##ency": 976,
      "won": 977,
      "federal": 978,
      "progr": 979,
      "susp": 980,
      "make": 981,
      "im": 982,
      "google": 983,
      "prime": 984,
      "gold": 985,
      "nas": 986,
      "san": 987,
      "cut": 988,
      "bag": 989,
      "loss": 990,
      "contin": 991,
      "ibm": 992,
      "way": 993,
      "fil": 994,
      "police": 995,
      "##ky": 996,
      "least": 997,
      "claim": 998,
      "wind": 999,
      "##ool": 1000,
      "##pos": 1001,
      "##ury": 1002,
      "eff": 1003,
      "add": 1004,
      "ke": 1005,
      "11": 1006,
      "iraqi": 1007,
      "bre": 1008,
      "election": 1009,
      "dat": 1010,
      "hold": 1011,
      "old": 1012,
      "another": 1013,
      "includ": 1014,
      "##app": 1015,
      "##ops": 1016,
      "made": 1017,
      "##ful": 1018,
      "leader": 1019,
      "how": 1020,
      "according": 1021,
      "found": 1022,
      "compan": 1023,
      "drug": 1024,
      "maker": 1025,
      "him": 1026,
      "incre": 1027,
      "ever": 1028,
      "##pr": 1029,
      "camp": 1030,
      "six": 1031,
      "update": 1032,
      "##vent": 1033,
      "companies": 1034,
      "uk": 1035,
      "##head": 1036,
      "##thern": 1037,
      "quick": 1038,
      "put": 1039,
      "deb": 1040,
      "##fo": 1041,
      "mobile": 1042,
      "##ax": 1043,
      "games": 1044,
      "star": 1045,
      "arm": 1046,
      "##ave": 1047,
      "stud": 1048,
      "##gest": 1049,
      "while": 1050,
      "there": 1051,
      "lond": 1052,
      "inj": 1053,
      "##aly": 1054,
      "oct": 1055,
      "sell": 1056,
      "through": 1057,
      "during": 1058,
      "terror": 1059,
      "london": 1060,
      "charg": 1061,
      "threat": 1062,
      "##ving": 1063,
      "ath": 1064,
      "##ular": 1065,
      "##ause": 1066,
      "ris": 1067,
      "ger": 1068,
      "series": 1069,
      "attack": 1070,
      "##hd": 1071,
      "##eless": 1072,
      "##let": 1073,
      "riv": 1074,
      "betw": 1075,
      "meet": 1076,
      "still": 1077,
      "between": 1078,
      "industry": 1079,
      "dead": 1080,
      "##ense": 1081,
      "pat": 1082,
      "ticker": 1083,
      "##over": 1084,
      "them": 1085,
      "tit": 1086,
      "stock": 1087,
      "20": 1088,
      "conc": 1089,
      "foot": 1090,
      "sub": 1091,
      "chip": 1092,
      "own": 1093,
      "##rup": 1094,
      "dri": 1095,
      "wir": 1096,
      "##aw": 1097,
      "baghd": 1098,
      "baghdad": 1099,
      "pass": 1100,
      "round": 1101,
      "mer": 1102,
      "##ttp": 1103,
      "http": 1104,
      "##ush": 1105,
      "sing": 1106,
      "ww": 1107,
      "##ty": 1108,
      "##ouse": 1109,
      "##ised": 1110,
      "trad": 1111,
      "##ending": 1112,
      "sept": 1113,
      "adv": 1114,
      "giant": 1115,
      "##be": 1116,
      "move": 1117,
      "consum": 1118,
      "left": 1119,
      "ara": 1120,
      "return": 1121,
      "share": 1122,
      "based": 1123,
      "vir": 1124,
      "look": 1125,
      "12": 1126,
      "sour": 1127,
      "sports": 1128,
      "##ards": 1129,
      "reach": 1130,
      "growth": 1131,
      "##ects": 1132,
      "services": 1133,
      "rul": 1134,
      "since": 1135,
      "www": 1136,
      "##isco": 1137,
      "pak": 1138,
      "wal": 1139,
      "##ize": 1140,
      "early": 1141,
      "##eks": 1142,
      "dou": 1143,
      "boo": 1144,
      "beat": 1145,
      "data": 1146,
      "##cl": 1147,
      "##ref": 1148,
      "insur": 1149,
      "wireless": 1150,
      "##ley": 1151,
      "##ages": 1152,
      "nuc": 1153,
      "ver": 1154,
      "program": 1155,
      "contro": 1156,
      "##son": 1157,
      "investor": 1158,
      "free": 1159,
      "appro": 1160,
      "trade": 1161,
      "nuclear": 1162,
      "href": 1163,
      "det": 1164,
      "bill": 1165,
      "hand": 1166,
      "##vie": 1167,
      "##owing": 1168,
      "union": 1169,
      "higher": 1170,
      "ur": 1171,
      "phone": 1172,
      "##eb": 1173,
      "mem": 1174,
      "##ution": 1175,
      "mid": 1176,
      "enter": 1177,
      "char": 1178,
      "##ains": 1179,
      "net": 1180,
      "##acle": 1181,
      "##ications": 1182,
      "spe": 1183,
      "##ivers": 1184,
      "sold": 1185,
      "leg": 1186,
      "##ind": 1187,
      "##ility": 1188,
      "military": 1189,
      "##ract": 1190,
      "australia": 1191,
      "earnings": 1192,
      "general": 1193,
      "pakistan": 1194,
      "ang": 1195,
      "kore": 1196,
      "form": 1197,
      "##ady": 1198,
      "pc": 1199,
      "sen": 1200,
      "##ots": 1201,
      "##ife": 1202,
      "##ues": 1203,
      "even": 1204,
      "being": 1205,
      "glob": 1206,
      "wr": 1207,
      "##ior": 1208,
      "any": 1209,
      "los": 1210,
      "##aza": 1211,
      "id": 1212,
      "##loy": 1213,
      "west": 1214,
      "only": 1215,
      "dev": 1216,
      "peace": 1217,
      "fight": 1218,
      "##ux": 1219,
      "spec": 1220,
      "law": 1221,
      "iran": 1222,
      "afgh": 1223,
      "act": 1224,
      "bra": 1225,
      "clos": 1226,
      "av": 1227,
      "##itch": 1228,
      "franc": 1229,
      "retail": 1230,
      "half": 1231,
      "hear": 1232,
      "##ping": 1233,
      "key": 1234,
      "keep": 1235,
      "turn": 1236,
      "##ider": 1237,
      "dav": 1238,
      "like": 1239,
      "rest": 1240,
      "players": 1241,
      "asp": 1242,
      "apple": 1243,
      "##iff": 1244,
      "desp": 1245,
      "iss": 1246,
      "sol": 1247,
      "##ights": 1248,
      "amp": 1249,
      "14": 1250,
      "##lin": 1251,
      "##bers": 1252,
      "##round": 1253,
      "dir": 1254,
      "##ments": 1255,
      "##min": 1256,
      "##ench": 1257,
      "stor": 1258,
      "calif": 1259,
      "good": 1260,
      "months": 1261,
      "##uel": 1262,
      "##ured": 1263,
      "drop": 1264,
      "##ked": 1265,
      "agreed": 1266,
      "afghan": 1267,
      "low": 1268,
      "sox": 1269,
      "foll": 1270,
      "##form": 1271,
      "##ison": 1272,
      "days": 1273,
      "##ission": 1274,
      "num": 1275,
      "join": 1276,
      "##par": 1277,
      "commun": 1278,
      "tim": 1279,
      "oracle": 1280,
      "firm": 1281,
      "dar": 1282,
      "because": 1283,
      "##ific": 1284,
      "fut": 1285,
      "face": 1286,
      "financ": 1287,
      "israeli": 1288,
      "##ator": 1289,
      "price": 1290,
      "windows": 1291,
      "bet": 1292,
      "##bs": 1293,
      "stand": 1294,
      "step": 1295,
      "many": 1296,
      "need": 1297,
      "global": 1298,
      "mich": 1299,
      "scor": 1300,
      "cre": 1301,
      "afr": 1302,
      "ahead": 1303,
      "fire": 1304,
      "mot": 1305,
      "nation": 1306,
      "wom": 1307,
      "scient": 1308,
      "viol": 1309,
      "latest": 1310,
      "england": 1311,
      "fund": 1312,
      "cust": 1313,
      "##med": 1314,
      "russian": 1315,
      "##ators": 1316,
      "##ism": 1317,
      "olympic": 1318,
      "mor": 1319,
      "##com": 1320,
      "##info": 1321,
      "##erson": 1322,
      "dig": 1323,
      "troops": 1324,
      "fore": 1325,
      "inst": 1326,
      "quickinfo": 1327,
      "aspx": 1328,
      "fac": 1329,
      "should": 1330,
      "##ries": 1331,
      "intel": 1332,
      "rad": 1333,
      "ve": 1334,
      "public": 1335,
      "ge": 1336,
      "gaza": 1337,
      "line": 1338,
      "vide": 1339,
      "##gan": 1340,
      "acqu": 1341,
      "russia": 1342,
      "##ible": 1343,
      "##ov": 1344,
      "hom": 1345,
      "ip": 1346,
      "biggest": 1347,
      "##int": 1348,
      "football": 1349,
      "rose": 1350,
      "vis": 1351,
      "##oci": 1352,
      "lab": 1353,
      "##eng": 1354,
      "executive": 1355,
      "##ik": 1356,
      "sud": 1357,
      "real": 1358,
      "compet": 1359,
      "##oston": 1360,
      "held": 1361,
      "ban": 1362,
      "##down": 1363,
      "##66": 1364,
      "##alth": 1365,
      "stra": 1366,
      "indian": 1367,
      "##amil": 1368,
      "##port": 1369,
      "jobs": 1370,
      "users": 1371,
      "boston": 1372,
      "championship": 1373,
      "including": 1374,
      "polit": 1375,
      "##iers": 1376,
      "##idn": 1377,
      "rise": 1378,
      "hurr": 1379,
      "hurrican": 1380,
      "ago": 1381,
      "bot": 1382,
      "##ude": 1383,
      "support": 1384,
      "reports": 1385,
      "suc": 1386,
      "##tain": 1387,
      "peoples": 1388,
      "hard": 1389,
      "rock": 1390,
      "demand": 1391,
      "mc": 1392,
      "phil": 1393,
      "east": 1394,
      "past": 1395,
      "canadian": 1396,
      "arr": 1397,
      "boost": 1398,
      "lower": 1399,
      "wall": 1400,
      "released": 1401,
      "custom": 1402,
      "death": 1403,
      "despite": 1404,
      "direct": 1405,
      "ev": 1406,
      "##iting": 1407,
      "leaders": 1408,
      "##ress": 1409,
      "economy": 1410,
      "##pl": 1411,
      "foreign": 1412,
      "pa": 1413,
      "points": 1414,
      "match": 1415,
      "##ds": 1416,
      "vers": 1417,
      "##ative": 1418,
      "peoplesoft": 1419,
      "fail": 1420,
      "har": 1421,
      "##ev": 1422,
      "much": 1423,
      "your": 1424,
      "##ann": 1425,
      "pop": 1426,
      "my": 1427,
      "##af": 1428,
      "athens": 1429,
      "bas": 1430,
      "forces": 1431,
      "dra": 1432,
      "mart": 1433,
      "13": 1434,
      "use": 1435,
      "case": 1436,
      "investors": 1437,
      "##ross": 1438,
      "##ret": 1439,
      "##ump": 1440,
      "commission": 1441,
      "pack": 1442,
      "economic": 1443,
      "div": 1444,
      "##back": 1445,
      "##erry": 1446,
      "school": 1447,
      "release": 1448,
      "aug": 1449,
      "contract": 1450,
      "associ": 1451,
      "base": 1452,
      "##ink": 1453,
      "##enter": 1454,
      "##ida": 1455,
      "tur": 1456,
      "##ater": 1457,
      "street": 1458,
      "emp": 1459,
      "fell": 1460,
      "house": 1461,
      "recent": 1462,
      "main": 1463,
      "##ued": 1464,
      "##ether": 1465,
      "disc": 1466,
      "36": 1467,
      "##used": 1468,
      "ast": 1469,
      "yan": 1470,
      "break": 1471,
      "##ats": 1472,
      "dom": 1473,
      "nov": 1474,
      "##row": 1475,
      "##ered": 1476,
      "##ears": 1477,
      "25": 1478,
      "##sh": 1479,
      "2005": 1480,
      "video": 1481,
      "seven": 1482,
      "broad": 1483,
      "trans": 1484,
      "18": 1485,
      "hum": 1486,
      "30": 1487,
      "16": 1488,
      "##ugg": 1489,
      "jud": 1490,
      "##rupt": 1491,
      "right": 1492,
      "process": 1493,
      "##iver": 1494,
      "##ute": 1495,
      "men": 1496,
      "##ago": 1497,
      "where": 1498,
      "source": 1499,
      "fourth": 1500,
      "region": 1501,
      "aim": 1502,
      "##esh": 1503,
      "##ising": 1504,
      "campa": 1505,
      "australian": 1506,
      "cell": 1507,
      "poss": 1508,
      "##uk": 1509,
      "presidential": 1510,
      "far": 1511,
      "ham": 1512,
      "concern": 1513,
      "tax": 1514,
      "lo": 1515,
      "17": 1516,
      "sudan": 1517,
      "french": 1518,
      "build": 1519,
      "title": 1520,
      "##ef": 1521,
      "##ather": 1522,
      "mod": 1523,
      "weeks": 1524,
      "##ober": 1525,
      "nations": 1526,
      "financial": 1527,
      "ce": 1528,
      "nearly": 1529,
      "investig": 1530,
      "health": 1531,
      "hist": 1532,
      "il": 1533,
      "close": 1534,
      "##ended": 1535,
      "sever": 1536,
      "tech": 1537,
      "linux": 1538,
      "##fact": 1539,
      "engine": 1540,
      "she": 1541,
      "rival": 1542,
      "wins": 1543,
      "##kyo": 1544,
      "tokyo": 1545,
      "around": 1546,
      "##acy": 1547,
      "called": 1548,
      "##uct": 1549,
      "try": 1550,
      "america": 1551,
      "workers": 1552,
      "care": 1553,
      "short": 1554,
      "vo": 1555,
      "##adr": 1556,
      "je": 1557,
      "##ized": 1558,
      "##off": 1559,
      "life": 1560,
      "auth": 1561,
      "attacks": 1562,
      "port": 1563,
      "field": 1564,
      "met": 1565,
      "systems": 1566,
      "watch": 1567,
      "ari": 1568,
      "campaign": 1569,
      "media": 1570,
      "dist": 1571,
      "quest": 1572,
      "##ocr": 1573,
      "alle": 1574,
      "control": 1575,
      "##ection": 1576,
      "flor": 1577,
      "nasa": 1578,
      "well": 1579,
      "lit": 1580,
      "analy": 1581,
      "small": 1582,
      "kerry": 1583,
      "##ration": 1584,
      "digital": 1585,
      "##fur": 1586,
      "univers": 1587,
      "saf": 1588,
      "##erence": 1589,
      "don": 1590,
      "##so": 1591,
      "best": 1592,
      "pos": 1593,
      "agency": 1594,
      "korea": 1595,
      "equ": 1596,
      "##eal": 1597,
      "##ecast": 1598,
      "##red": 1599,
      "##iger": 1600,
      "chic": 1601,
      "##by": 1602,
      "##itt": 1603,
      "capital": 1604,
      "yanke": 1605,
      "sum": 1606,
      "##ging": 1607,
      "##ests": 1608,
      "##ham": 1609,
      "card": 1610,
      "francisco": 1611,
      "democr": 1612,
      "appl": 1613,
      "super": 1614,
      "mass": 1615,
      "secret": 1616,
      "sent": 1617,
      "emb": 1618,
      "number": 1619,
      "##ults": 1620,
      "late": 1621,
      "rob": 1622,
      "leading": 1623,
      "player": 1624,
      "led": 1625,
      "##ites": 1626,
      "##view": 1627,
      "100": 1628,
      "##key": 1629,
      "party": 1630,
      "##uj": 1631,
      "success": 1632,
      "##iving": 1633,
      "##ark": 1634,
      "october": 1635,
      "september": 1636,
      "forecast": 1637,
      "prom": 1638,
      "chicago": 1639,
      "race": 1640,
      "coll": 1641,
      "used": 1642,
      "crude": 1643,
      "also": 1644,
      "##uck": 1645,
      "took": 1646,
      "hot": 1647,
      "araf": 1648,
      "scientists": 1649,
      "laws": 1650,
      "florida": 1651,
      "##rem": 1652,
      "center": 1653,
      "##ided": 1654,
      "##ends": 1655,
      "crit": 1656,
      "rece": 1657,
      "ty": 1658,
      "hurricane": 1659,
      "depart": 1660,
      "following": 1661,
      "##elf": 1662,
      "great": 1663,
      "consumer": 1664,
      "famil": 1665,
      "ms": 1666,
      "killing": 1667,
      "interest": 1668,
      "darfur": 1669,
      "iv": 1670,
      "##ta": 1671,
      "##atic": 1672,
      "##ming": 1673,
      "arafat": 1674,
      "person": 1675,
      "battle": 1676,
      "lik": 1677,
      "sn": 1678,
      "mail": 1679,
      "army": 1680,
      "est": 1681,
      "outs": 1682,
      "##ness": 1683,
      "50": 1684,
      "##fl": 1685,
      "##ened": 1686,
      "vote": 1687,
      "spr": 1688,
      "barr": 1689,
      "here": 1690,
      "version": 1691,
      "##ney": 1692,
      "fast": 1693,
      "charges": 1694,
      "##hold": 1695,
      "corpor": 1696,
      "france": 1697,
      "study": 1698,
      "author": 1699,
      "mos": 1700,
      "##cer": 1701,
      "rev": 1702,
      "design": 1703,
      "##ech": 1704,
      "board": 1705,
      "touch": 1706,
      "clear": 1707,
      "chall": 1708,
      "japanese": 1709,
      "poll": 1710,
      "unve": 1711,
      "speed": 1712,
      "both": 1713,
      "unveil": 1714,
      "yankees": 1715,
      "might": 1716,
      "val": 1717,
      "find": 1718,
      "agreement": 1719,
      "##sc": 1720,
      "trial": 1721,
      "future": 1722,
      "give": 1723,
      "##go": 1724,
      "loc": 1725,
      "##ex": 1726,
      "aid": 1727,
      "##ker": 1728,
      "reven": 1729,
      "black": 1730,
      "impro": 1731,
      "ball": 1732,
      "##ael": 1733,
      "##lines": 1734,
      "##pe": 1735,
      "quote": 1736,
      "strike": 1737,
      "anti": 1738,
      "den": 1739,
      "##str": 1740,
      "##ases": 1741,
      "propos": 1742,
      "regul": 1743,
      "want": 1744,
      "site": 1745,
      "electron": 1746,
      "##raft": 1747,
      "list": 1748,
      "##kt": 1749,
      "##aker": 1750,
      "##ensive": 1751,
      "making": 1752,
      "begin": 1753,
      "doc": 1754,
      "geor": 1755,
      "club": 1756,
      "organ": 1757,
      "products": 1758,
      "sem": 1759,
      "ener": 1760,
      "##ject": 1761,
      "remain": 1762,
      "profile": 1763,
      "settle": 1764,
      "exper": 1765,
      "##rib": 1766,
      "sim": 1767,
      "##ij": 1768,
      "arrest": 1769,
      "tv": 1770,
      "every": 1771,
      "tor": 1772,
      "resp": 1773,
      "political": 1774,
      "manager": 1775,
      "tour": 1776,
      "britain": 1777,
      "employ": 1778,
      "##ges": 1779,
      "##ike": 1780,
      "women": 1781,
      "##lo": 1782,
      "eight": 1783,
      "beh": 1784,
      "##uit": 1785,
      "stop": 1786,
      "william": 1787,
      "earth": 1788,
      "management": 1789,
      "21": 1790,
      "gra": 1791,
      "##idence": 1792,
      "californ": 1793,
      "24": 1794,
      "##cy": 1795,
      "customers": 1796,
      "results": 1797,
      "##ished": 1798,
      "defense": 1799,
      "tre": 1800,
      "away": 1801,
      "sk": 1802,
      "curr": 1803,
      "##vem": 1804,
      "conference": 1805,
      "po": 1806,
      "push": 1807,
      "##ale": 1808,
      "blast": 1809,
      "novem": 1810,
      "pull": 1811,
      "##lam": 1812,
      "##ners": 1813,
      "##orks": 1814,
      "decision": 1815,
      "several": 1816,
      "office": 1817,
      "reser": 1818,
      "angel": 1819,
      "energy": 1820,
      "cel": 1821,
      "november": 1822,
      "sony": 1823,
      "##less": 1824,
      "##ises": 1825,
      "place": 1826,
      "little": 1827,
      "proble": 1828,
      "mac": 1829,
      "northern": 1830,
      "hour": 1831,
      "##enal": 1832,
      "shot": 1833,
      "food": 1834,
      "##imin": 1835,
      "##ify": 1836,
      "chair": 1837,
      "southern": 1838,
      "gas": 1839,
      "##ster": 1840,
      "pitch": 1841,
      "##ole": 1842,
      "meeting": 1843,
      "costs": 1844,
      "without": 1845,
      "militants": 1846,
      "bow": 1847,
      "##da": 1848,
      "hostage": 1849,
      "##amed": 1850,
      "##ne": 1851,
      "##ung": 1852,
      "running": 1853,
      "pan": 1854,
      "##ler": 1855,
      "elections": 1856,
      "gets": 1857,
      "champion": 1858,
      "takes": 1859,
      "baseball": 1860,
      "kidn": 1861,
      "##we": 1862,
      "california": 1863,
      "tex": 1864,
      "##uce": 1865,
      "does": 1866,
      "##lant": 1867,
      "##ston": 1868,
      "storm": 1869,
      "bankrupt": 1870,
      "lar": 1871,
      "islam": 1872,
      "grand": 1873,
      "perform": 1874,
      "##ways": 1875,
      "winning": 1876,
      "judge": 1877,
      "polic": 1878,
      "taking": 1879,
      "central": 1880,
      "##ession": 1881,
      "order": 1882,
      "##ams": 1883,
      "inform": 1884,
      "cuts": 1885,
      "canada": 1886,
      "due": 1887,
      "straight": 1888,
      "force": 1889,
      "few": 1890,
      "ca": 1891,
      "mess": 1892,
      "er": 1893,
      "vot": 1894,
      "##ipp": 1895,
      "##ides": 1896,
      "spam": 1897,
      "##ba": 1898,
      "priv": 1899,
      "such": 1900,
      "##icans": 1901,
      "qual": 1902,
      "green": 1903,
      "doub": 1904,
      "defe": 1905,
      "seek": 1906,
      "oppos": 1907,
      "quarterly": 1908,
      "human": 1909,
      "##ule": 1910,
      "analyst": 1911,
      "fans": 1912,
      "hopes": 1913,
      "child": 1914,
      "##sp": 1915,
      "told": 1916,
      "neg": 1917,
      "department": 1918,
      "cle": 1919,
      "##lier": 1920,
      "euro": 1921,
      "germ": 1922,
      "expect": 1923,
      "ceo": 1924,
      "##umb": 1925,
      "deskt": 1926,
      "claims": 1927,
      "cam": 1928,
      "see": 1929,
      "better": 1930,
      "though": 1931,
      "##thers": 1932,
      "soc": 1933,
      "whether": 1934,
      "michael": 1935,
      "mill": 1936,
      "##ott": 1937,
      "bod": 1938,
      "##uction": 1939,
      "land": 1940,
      "##mit": 1941,
      "less": 1942,
      "##owed": 1943,
      "stat": 1944,
      "##ians": 1945,
      "rate": 1946,
      "sil": 1947,
      "##ees": 1948,
      "##eck": 1949,
      "outl": 1950,
      "times": 1951,
      "##bc": 1952,
      "using": 1953,
      "explos": 1954,
      "let": 1955,
      "##gin": 1956,
      "chang": 1957,
      "lou": 1958,
      "##ension": 1959,
      "giants": 1960,
      "amid": 1961,
      "scored": 1962,
      "likely": 1963,
      "wound": 1964,
      "##ired": 1965,
      "increase": 1966,
      "##rist": 1967,
      "##ana": 1968,
      "mal": 1969,
      "ship": 1970,
      "##cept": 1971,
      "exch": 1972,
      "across": 1973,
      "telev": 1974,
      "fre": 1975,
      "consider": 1976,
      "ey": 1977,
      "launched": 1978,
      "violence": 1979,
      "##ps": 1980,
      "fuel": 1981,
      "foc": 1982,
      "action": 1983,
      "august": 1984,
      "university": 1985,
      "complet": 1986,
      "money": 1987,
      "class": 1988,
      "hou": 1989,
      "##ape": 1990,
      "angeles": 1991,
      "lost": 1992,
      "rank": 1993,
      "saying": 1994,
      "##wa": 1995,
      "level": 1996,
      "bay": 1997,
      "gun": 1998,
      "become": 1999,
      "texas": 2000,
      "##imb": 2001,
      "##inese": 2002,
      "williams": 2003,
      "dam": 2004,
      "rich": 2005,
      "coast": 2006,
      "history": 2007,
      "##ering": 2008,
      "##prise": 2009,
      "cash": 2010,
      "rates": 2011,
      "chairman": 2012,
      "##eration": 2013,
      "prison": 2014,
      "unit": 2015,
      "ipod": 2016,
      "atlant": 2017,
      "tool": 2018,
      "##rew": 2019,
      "vol": 2020,
      "thous": 2021,
      "chinese": 2022,
      "trading": 2023,
      "cy": 2024,
      "##urt": 2025,
      "##osp": 2026,
      "houston": 2027,
      "tom": 2028,
      "stores": 2029,
      "admin": 2030,
      "weekend": 2031,
      "access": 2032,
      "server": 2033,
      "##ential": 2034,
      "morning": 2035,
      "opt": 2036,
      "seat": 2037,
      "administ": 2038,
      "ple": 2039,
      "among": 2040,
      "pur": 2041,
      "hits": 2042,
      "##br": 2043,
      "germany": 2044,
      "too": 2045,
      "##ox": 2046,
      "##oon": 2047,
      "##ys": 2048,
      "activ": 2049,
      "white": 2050,
      "medal": 2051,
      "members": 2052,
      "sharp": 2053,
      "toward": 2054,
      "alm": 2055,
      "same": 2056,
      "##ett": 2057,
      "ars": 2058,
      "information": 2059,
      "##ars": 2060,
      "rebels": 2061,
      "secretary": 2062,
      "desktop": 2063,
      "come": 2064,
      "cop": 2065,
      "##oid": 2066,
      "##ove": 2067,
      "behind": 2068,
      "rally": 2069,
      "##ea": 2070,
      "##estern": 2071,
      "eas": 2072,
      "change": 2073,
      "soon": 2074,
      "emer": 2075,
      "block": 2076,
      "##res": 2077,
      "rej": 2078,
      "radio": 2079,
      "##ounce": 2080,
      "crash": 2081,
      "accused": 2082,
      "falluj": 2083,
      "belie": 2084,
      "withd": 2085,
      "confir": 2086,
      "must": 2087,
      "phones": 2088,
      "yah": 2089,
      "diff": 2090,
      "##lex": 2091,
      "german": 2092,
      "mult": 2093,
      "prem": 2094,
      "ju": 2095,
      "##avy": 2096,
      "david": 2097,
      "conn": 2098,
      "attem": 2099,
      "bal": 2100,
      "gain": 2101,
      "yahoo": 2102,
      "##att": 2103,
      "store": 2104,
      "soldiers": 2105,
      "##cc": 2106,
      "seen": 2107,
      "possible": 2108,
      "did": 2109,
      "going": 2110,
      "barrel": 2111,
      "cub": 2112,
      "injured": 2113,
      "prepar": 2114,
      "afghanistan": 2115,
      "profits": 2116,
      "fra": 2117,
      "makes": 2118,
      "operating": 2119,
      "bri": 2120,
      "##lim": 2121,
      "##cast": 2122,
      "##ified": 2123,
      "paul": 2124,
      "mag": 2125,
      "##ns": 2126,
      "commer": 2127,
      "##aper": 2128,
      "phot": 2129,
      "product": 2130,
      "communications": 2131,
      "color": 2132,
      "visit": 2133,
      "labor": 2134,
      "repl": 2135,
      "##ona": 2136,
      "senior": 2137,
      "exchange": 2138,
      "fact": 2139,
      "indones": 2140,
      "manu": 2141,
      "infl": 2142,
      "revenue": 2143,
      "republ": 2144,
      "disp": 2145,
      "almost": 2146,
      "stad": 2147,
      "##ived": 2148,
      "calls": 2149,
      "point": 2150,
      "##aff": 2151,
      "warned": 2152,
      "ready": 2153,
      "bring": 2154,
      "bankruptcy": 2155,
      "nine": 2156,
      "blue": 2157,
      "paris": 2158,
      "intro": 2159,
      "##ament": 2160,
      "##ught": 2161,
      "rac": 2162,
      "##ren": 2163,
      "thousands": 2164,
      "cand": 2165,
      "tenn": 2166,
      "##inc": 2167,
      "ob": 2168,
      "cond": 2169,
      "airlines": 2170,
      "jan": 2171,
      "os": 2172,
      "takeover": 2173,
      "stadium": 2174,
      "##itz": 2175,
      "##raw": 2176,
      "posted": 2177,
      "train": 2178,
      "##ience": 2179,
      "account": 2180,
      "touchdown": 2181,
      "fur": 2182,
      "heart": 2183,
      "manufact": 2184,
      "file": 2185,
      "##ift": 2186,
      "##oti": 2187,
      "shut": 2188,
      "reserve": 2189,
      "colle": 2190,
      "insurg": 2191,
      "domin": 2192,
      "showed": 2193,
      "feat": 2194,
      "got": 2195,
      "##ety": 2196,
      "bur": 2197,
      "fav": 2198,
      "##ena": 2199,
      "term": 2200,
      "pac": 2201,
      "personal": 2202,
      "##load": 2203,
      "signed": 2204,
      "virgin": 2205,
      "africa": 2206,
      "##ening": 2207,
      "23": 2208,
      "weap": 2209,
      "nfl": 2210,
      "##iti": 2211,
      "yet": 2212,
      "those": 2213,
      "shop": 2214,
      "delay": 2215,
      "production": 2216,
      "challen": 2217,
      "##eland": 2218,
      "division": 2219,
      "television": 2220,
      "braz": 2221,
      "22": 2222,
      "opening": 2223,
      "##onto": 2224,
      "popular": 2225,
      "toronto": 2226,
      "pil": 2227,
      "arri": 2228,
      "negoti": 2229,
      "jun": 2230,
      "##inals": 2231,
      "earlier": 2232,
      "500": 2233,
      "jones": 2234,
      "env": 2235,
      "cred": 2236,
      "ent": 2237,
      "markets": 2238,
      "##ota": 2239,
      "hope": 2240,
      "##ization": 2241,
      "ry": 2242,
      "growing": 2243,
      "##dle": 2244,
      "surve": 2245,
      "offering": 2246,
      "roll": 2247,
      "spain": 2248,
      "sale": 2249,
      "wants": 2250,
      "road": 2251,
      "alleged": 2252,
      "appear": 2253,
      "muslim": 2254,
      "##ille": 2255,
      "ut": 2256,
      "requ": 2257,
      "##que": 2258,
      "##gress": 2259,
      "vie": 2260,
      "opposition": 2261,
      "##itor": 2262,
      "##itive": 2263,
      "che": 2264,
      "outlook": 2265,
      "wood": 2266,
      "##ban": 2267,
      "##ama": 2268,
      "unt": 2269,
      "travel": 2270,
      "pot": 2271,
      "stake": 2272,
      "legal": 2273,
      "ny": 2274,
      "##ication": 2275,
      "helped": 2276,
      "civ": 2277,
      "olympics": 2278,
      "performance": 2279,
      "brazil": 2280,
      "capt": 2281,
      "local": 2282,
      "louis": 2283,
      "font": 2284,
      "carri": 2285,
      "leav": 2286,
      "dip": 2287,
      "##itions": 2288,
      "art": 2289,
      "association": 2290,
      "blair": 2291,
      "station": 2292,
      "probe": 2293,
      "arg": 2294,
      "resign": 2295,
      "finance": 2296,
      "americans": 2297,
      "##ately": 2298,
      "rebel": 2299,
      "corporate": 2300,
      "##val": 2301,
      "came": 2302,
      "hosp": 2303,
      "began": 2304,
      "african": 2305,
      "concerns": 2306,
      "ltd": 2307,
      "##ared": 2308,
      "##king": 2309,
      "##olf": 2310,
      "island": 2311,
      "brown": 2312,
      "kar": 2313,
      "ital": 2314,
      "flight": 2315,
      "wa": 2316,
      "town": 2317,
      "fresh": 2318,
      "focus": 2319,
      "madr": 2320,
      "##icks": 2321,
      "goal": 2322,
      "counc": 2323,
      "gains": 2324,
      "##band": 2325,
      "special": 2326,
      "suff": 2327,
      "insurance": 2328,
      "died": 2329,
      "##de": 2330,
      "slow": 2331,
      "dv": 2332,
      "##ecom": 2333,
      "networks": 2334,
      "candid": 2335,
      "civil": 2336,
      "council": 2337,
      "##olution": 2338,
      "##cover": 2339,
      "western": 2340,
      "conv": 2341,
      "expand": 2342,
      "##ooks": 2343,
      "efforts": 2344,
      "ended": 2345,
      "dut": 2346,
      "199": 2347,
      "ber": 2348,
      "countries": 2349,
      "prop": 2350,
      "recover": 2351,
      "lift": 2352,
      "mast": 2353,
      "##asing": 2354,
      "aff": 2355,
      "track": 2356,
      "career": 2357,
      "administration": 2358,
      "mur": 2359,
      "##bur": 2360,
      "once": 2361,
      "##akers": 2362,
      "youn": 2363,
      "##ket": 2364,
      "##ready": 2365,
      "already": 2366,
      "airline": 2367,
      "sym": 2368,
      "investment": 2369,
      "arrested": 2370,
      "fighting": 2371,
      "announce": 2372,
      "supply": 2373,
      "##chester": 2374,
      "pm": 2375,
      "##aj": 2376,
      "analysts": 2377,
      "miam": 2378,
      "double": 2379,
      "##ino": 2380,
      "looking": 2381,
      "28": 2382,
      "miami": 2383,
      "jour": 2384,
      "##vert": 2385,
      "spending": 2386,
      "download": 2387,
      "##asser": 2388,
      "holiday": 2389,
      "trying": 2390,
      "hours": 2391,
      "niger": 2392,
      "##ece": 2393,
      "prev": 2394,
      "weapons": 2395,
      "drive": 2396,
      "##apped": 2397,
      "competition": 2398,
      "27": 2399,
      "##ane": 2400,
      "within": 2401,
      "computers": 2402,
      "madrid": 2403,
      "fraud": 2404,
      "read": 2405,
      "teams": 2406,
      "bowl": 2407,
      "family": 2408,
      "arsenal": 2409,
      "attempt": 2410,
      "squ": 2411,
      "sched": 2412,
      "lim": 2413,
      "##wood": 2414,
      "spot": 2415,
      "hy": 2416,
      "cris": 2417,
      "35": 2418,
      "egy": 2419,
      "continue": 2420,
      "mort": 2421,
      "side": 2422,
      "egypt": 2423,
      "dell": 2424,
      "##set": 2425,
      "##icide": 2426,
      "others": 2427,
      "water": 2428,
      "charged": 2429,
      "rules": 2430,
      "##ll": 2431,
      "##ades": 2432,
      "question": 2433,
      "##verage": 2434,
      "airways": 2435,
      "##rap": 2436,
      "##ances": 2437,
      "rights": 2438,
      "##aps": 2439,
      "##ength": 2440,
      "reve": 2441,
      "spac": 2442,
      "##icket": 2443,
      "current": 2444,
      "stay": 2445,
      "beij": 2446,
      "ground": 2447,
      "##ories": 2448,
      "bene": 2449,
      "##wide": 2450,
      "motor": 2451,
      "beijing": 2452,
      "nba": 2453,
      "virus": 2454,
      "outside": 2455,
      "policy": 2456,
      "pir": 2457,
      "##lad": 2458,
      "survey": 2459,
      "telecom": 2460,
      "george": 2461,
      "strugg": 2462,
      "sharon": 2463,
      "##okes": 2464,
      "until": 2465,
      "fig": 2466,
      "hun": 2467,
      "bond": 2468,
      "##ric": 2469,
      "starting": 2470,
      "bird": 2471,
      "pressure": 2472,
      "crisis": 2473,
      "gam": 2474,
      "brows": 2475,
      "151": 2476,
      "avail": 2477,
      "pract": 2478,
      "enough": 2479,
      "selling": 2480,
      "authorities": 2481,
      "merc": 2482,
      "seattle": 2483,
      "hund": 2484,
      "seem": 2485,
      "strip": 2486,
      "basket": 2487,
      "hundred": 2488,
      "mount": 2489,
      "gave": 2490,
      "coming": 2491,
      "mach": 2492,
      "clin": 2493,
      "development": 2494,
      "hospital": 2495,
      "som": 2496,
      "##nal": 2497,
      "express": 2498,
      "pow": 2499,
      "offers": 2500,
      "consumers": 2501,
      "asia": 2502,
      "##eing": 2503,
      "effort": 2504,
      "italian": 2505,
      "strate": 2506,
      "deliver": 2507,
      "fears": 2508,
      "weak": 2509,
      "finally": 2510,
      "manchester": 2511,
      "cp": 2512,
      "##get": 2513,
      "pred": 2514,
      "quarterback": 2515,
      "ruling": 2516,
      "##ips": 2517,
      "yards": 2518,
      "##utes": 2519,
      "arab": 2520,
      "##ined": 2521,
      "sees": 2522,
      "executives": 2523,
      "reached": 2524,
      "suicide": 2525,
      "##ris": 2526,
      "injury": 2527,
      "##reme": 2528,
      "die": 2529,
      "christ": 2530,
      "children": 2531,
      "each": 2532,
      "size": 2533,
      "award": 2534,
      "##emp": 2535,
      "mont": 2536,
      "hands": 2537,
      "then": 2538,
      "##leg": 2539,
      "##iance": 2540,
      "satell": 2541,
      "hug": 2542,
      "##use": 2543,
      "scre": 2544,
      "yuk": 2545,
      "##ico": 2546,
      "retailer": 2547,
      "celeb": 2548,
      "devices": 2549,
      "wild": 2550,
      "taken": 2551,
      "bang": 2552,
      "##mo": 2553,
      "guard": 2554,
      "getting": 2555,
      "charge": 2556,
      "##ily": 2557,
      "ivan": 2558,
      "bad": 2559,
      "cisco": 2560,
      "##ault": 2561,
      "aimed": 2562,
      "chips": 2563,
      "cou": 2564,
      "event": 2565,
      "electronics": 2566,
      "failed": 2567,
      "soccer": 2568,
      "##ually": 2569,
      "##aced": 2570,
      "jump": 2571,
      "name": 2572,
      "##field": 2573,
      "##arm": 2574,
      "heavy": 2575,
      "large": 2576,
      "##men": 2577,
      "invol": 2578,
      "further": 2579,
      "##wan": 2580,
      "rivals": 2581,
      "yukos": 2582,
      "fi": 2583,
      "operations": 2584,
      "staff": 2585,
      "researchers": 2586,
      "continued": 2587,
      "college": 2588,
      "40": 2589,
      "##err": 2590,
      "shows": 2591,
      "spokes": 2592,
      "problems": 2593,
      "private": 2594,
      "playoff": 2595,
      "nat": 2596,
      "ok": 2597,
      "previous": 2598,
      "fif": 2599,
      "mosc": 2600,
      "26": 2601,
      "clash": 2602,
      "##ically": 2603,
      "import": 2604,
      "estim": 2605,
      "light": 2606,
      "hew": 2607,
      "##ender": 2608,
      "comb": 2609,
      "swe": 2610,
      "known": 2611,
      "basketball": 2612,
      "asian": 2613,
      "park": 2614,
      "powerful": 2615,
      "treat": 2616,
      "roy": 2617,
      "##ced": 2618,
      "##ga": 2619,
      "think": 2620,
      "##anced": 2621,
      "rising": 2622,
      "middle": 2623,
      "yasser": 2624,
      "##nes": 2625,
      "discover": 2626,
      "discuss": 2627,
      "golf": 2628,
      "##ertain": 2629,
      "benef": 2630,
      "moscow": 2631,
      "caus": 2632,
      "jail": 2633,
      "pick": 2634,
      "##ishing": 2635,
      "trip": 2636,
      "qa": 2637,
      "rod": 2638,
      "fired": 2639,
      "working": 2640,
      "risk": 2641,
      "cit": 2642,
      "##akes": 2643,
      "partners": 2644,
      "area": 2645,
      "young": 2646,
      "winter": 2647,
      "ly": 2648,
      "went": 2649,
      "disapp": 2650,
      "introduc": 2651,
      "missing": 2652,
      "steel": 2653,
      "##icted": 2654,
      "raised": 2655,
      "palestinians": 2656,
      "named": 2657,
      "##hl": 2658,
      "##han": 2659,
      "davis": 2660,
      "bi": 2661,
      "##uary": 2662,
      "##iven": 2663,
      "filed": 2664,
      "credit": 2665,
      "##ville": 2666,
      "potential": 2667,
      "ident": 2668,
      "coun": 2669,
      "above": 2670,
      "suspected": 2671,
      "atlanta": 2672,
      "nok": 2673,
      "kills": 2674,
      "merger": 2675,
      "lock": 2676,
      "##east": 2677,
      "##ulation": 2678,
      "appeal": 2679,
      "prob": 2680,
      "hp": 2681,
      "never": 2682,
      "##aled": 2683,
      "warning": 2684,
      "leave": 2685,
      "##ability": 2686,
      "signs": 2687,
      "respons": 2688,
      "fri": 2689,
      "defeat": 2690,
      "bud": 2691,
      "##for": 2692,
      "##osed": 2693,
      "eag": 2694,
      "illeg": 2695,
      "pit": 2696,
      "firms": 2697,
      "faces": 2698,
      "worth": 2699,
      "challenge": 2700,
      "mission": 2701,
      "terrorism": 2702,
      "##elph": 2703,
      "##iron": 2704,
      "debt": 2705,
      "##icip": 2706,
      "dvd": 2707,
      "pros": 2708,
      "equip": 2709,
      "##gers": 2710,
      "withdraw": 2711,
      "parl": 2712,
      "##elphia": 2713,
      "annual": 2714,
      "designed": 2715,
      "bell": 2716,
      "2006": 2717,
      "allow": 2718,
      "pet": 2719,
      "##den": 2720,
      "planned": 2721,
      "journal": 2722,
      "##mar": 2723,
      "sex": 2724,
      "storage": 2725,
      "chance": 2726,
      "businesses": 2727,
      "body": 2728,
      "satellite": 2729,
      "investigation": 2730,
      "issue": 2731,
      "spy": 2732,
      "mex": 2733,
      "raid": 2734,
      "##ze": 2735,
      "span": 2736,
      "##ept": 2737,
      "autom": 2738,
      "jer": 2739,
      "dollars": 2740,
      "king": 2741,
      "##ald": 2742,
      "delta": 2743,
      "controvers": 2744,
      "xp": 2745,
      "tourn": 2746,
      "issues": 2747,
      "expectations": 2748,
      "cricket": 2749,
      "##50": 2750,
      "strength": 2751,
      "##era": 2752,
      "##ention": 2753,
      "##unes": 2754,
      "hall": 2755,
      "shr": 2756,
      "sharehold": 2757,
      "tell": 2758,
      "##ya": 2759,
      "##ders": 2760,
      "project": 2761,
      "##ander": 2762,
      "singap": 2763,
      "lawsuit": 2764,
      "tony": 2765,
      "treas": 2766,
      "amd": 2767,
      "fun": 2768,
      "##ilt": 2769,
      "parliam": 2770,
      "singapore": 2771,
      "ken": 2772,
      "know": 2773,
      "nokia": 2774,
      "##roit": 2775,
      "provide": 2776,
      "parliament": 2777,
      "congress": 2778,
      "##ector": 2779,
      "dutch": 2780,
      "dre": 2781,
      "sug": 2782,
      "##lom": 2783,
      "detroit": 2784,
      "december": 2785,
      "hundreds": 2786,
      "dow": 2787,
      "tai": 2788,
      "##eric": 2789,
      "front": 2790,
      "groups": 2791,
      "##ria": 2792,
      "italy": 2793,
      "##to": 2794,
      "##anium": 2795,
      "available": 2796,
      "bord": 2797,
      "securities": 2798,
      "captain": 2799,
      "improve": 2800,
      "400": 2801,
      "naj": 2802,
      "rom": 2803,
      "##mir": 2804,
      "launches": 2805,
      "sites": 2806,
      "review": 2807,
      "seeks": 2808,
      "officer": 2809,
      "bit": 2810,
      "boy": 2811,
      "##lies": 2812,
      "##mark": 2813,
      "##kins": 2814,
      "##iding": 2815,
      "##irc": 2816,
      "cbs": 2817,
      "debate": 2818,
      "experts": 2819,
      "29": 2820,
      "fix": 2821,
      "newsp": 2822,
      "boeing": 2823,
      "regulators": 2824,
      "##bit": 2825,
      "overt": 2826,
      "athlet": 2827,
      "draw": 2828,
      "##enger": 2829,
      "ryder": 2830,
      "najaf": 2831,
      "rain": 2832,
      "##orters": 2833,
      "intell": 2834,
      "prosecut": 2835,
      "looks": 2836,
      "##wart": 2837,
      "separ": 2838,
      "singh": 2839,
      "##oming": 2840,
      "runs": 2841,
      "approved": 2842,
      "enterprise": 2843,
      "aud": 2844,
      "wid": 2845,
      "##ula": 2846,
      "##arra": 2847,
      "##ably": 2848,
      "blood": 2849,
      "medical": 2850,
      "drugs": 2851,
      "rout": 2852,
      "##ford": 2853,
      "arch": 2854,
      "advert": 2855,
      "philad": 2856,
      "democratic": 2857,
      "happ": 2858,
      "##icit": 2859,
      "militant": 2860,
      "employees": 2861,
      "box": 2862,
      "hen": 2863,
      "recall": 2864,
      "losses": 2865,
      "fallujah": 2866,
      "philadelphia": 2867,
      "mat": 2868,
      "surv": 2869,
      "astros": 2870,
      "browser": 2871,
      "awa": 2872,
      "view": 2873,
      "ran": 2874,
      "closer": 2875,
      "islamic": 2876,
      "2003": 2877,
      "##anger": 2878,
      "##itness": 2879,
      "tot": 2880,
      "##ural": 2881,
      "acquis": 2882,
      "safety": 2883,
      "prize": 2884,
      "resum": 2885,
      "moon": 2886,
      "ireland": 2887,
      "ukra": 2888,
      "building": 2889,
      "##illa": 2890,
      "johnson": 2891,
      "circ": 2892,
      "mut": 2893,
      "asked": 2894,
      "dism": 2895,
      "sant": 2896,
      "nasda": 2897,
      "astron": 2898,
      "position": 2899,
      "nasdaq": 2900,
      "##wh": 2901,
      "taiwan": 2902,
      "fly": 2903,
      "lines": 2904,
      "trop": 2905,
      "##post": 2906,
      "check": 2907,
      "##ceed": 2908,
      "effect": 2909,
      "critic": 2910,
      "sprint": 2911,
      "bull": 2912,
      "deep": 2913,
      "unveiled": 2914,
      "##tors": 2915,
      "##aged": 2916,
      "##aging": 2917,
      "slight": 2918,
      "overs": 2919,
      "##uff": 2920,
      "sett": 2921,
      "rap": 2922,
      "##ounds": 2923,
      "dest": 2924,
      "role": 2925,
      "upgr": 2926,
      "avoid": 2927,
      "environ": 2928,
      "forward": 2929,
      "##uting": 2930,
      "scand": 2931,
      "vs": 2932,
      "decided": 2933,
      "fifth": 2934,
      "tournament": 2935,
      "##egr": 2936,
      "urged": 2937,
      "crow": 2938,
      "##pon": 2939,
      "woods": 2940,
      "sets": 2941,
      "disney": 2942,
      "fla": 2943,
      "rocket": 2944,
      "confirmed": 2945,
      "given": 2946,
      "rang": 2947,
      "holding": 2948,
      "ster": 2949,
      "cho": 2950,
      "appar": 2951,
      "##eph": 2952,
      "technologies": 2953,
      "giving": 2954,
      "generation": 2955,
      "hostages": 2956,
      "ton": 2957,
      "losing": 2958,
      "##read": 2959,
      "row": 2960,
      "##cel": 2961,
      "##cial": 2962,
      "goes": 2963,
      "##awi": 2964,
      "applications": 2965,
      "tight": 2966,
      "##per": 2967,
      "##iet": 2968,
      "equipment": 2969,
      "49": 2970,
      "seed": 2971,
      "lawy": 2972,
      "##ption": 2973,
      "putin": 2974,
      "brief": 2975,
      "later": 2976,
      "detail": 2977,
      "along": 2978,
      "rises": 2979,
      "turned": 2980,
      "##dam": 2981,
      "##assin": 2982,
      "playing": 2983,
      "somet": 2984,
      "31": 2985,
      "comes": 2986,
      "debut": 2987,
      "ranked": 2988,
      "purch": 2989,
      "mom": 2990,
      "protest": 2991,
      "commercial": 2992,
      "##imate": 2993,
      "decl": 2994,
      "streak": 2995,
      "plant": 2996,
      "##ented": 2997,
      "code": 2998,
      "warns": 2999,
      "kash": 3000,
      "nets": 3001,
      "tough": 3002,
      "chels": 3003,
      "film": 3004,
      "serious": 3005,
      "added": 3006,
      "average": 3007,
      "accept": 3008,
      "##olph": 3009,
      "##illing": 3010,
      "agree": 3011,
      "create": 3012,
      "kashmir": 3013,
      "sanc": 3014,
      "witness": 3015,
      "traff": 3016,
      "accounting": 3017,
      "jets": 3018,
      "##kes": 3019,
      "##vet": 3020,
      "offensive": 3021,
      "meas": 3022,
      "broadband": 3023,
      "kidnapped": 3024,
      "fear": 3025,
      "woman": 3026,
      "our": 3027,
      "ram": 3028,
      "##fi": 3029,
      "displ": 3030,
      "standard": 3031,
      "mike": 3032,
      "send": 3033,
      "retire": 3034,
      "victim": 3035,
      "range": 3036,
      "##ran": 3037,
      "##hic": 3038,
      "##atives": 3039,
      "compl": 3040,
      "desc": 3041,
      "doz": 3042,
      "increased": 3043,
      "changes": 3044,
      "##uits": 3045,
      "##zz": 3046,
      "repres": 3047,
      "##rust": 3048,
      "summer": 3049,
      "##raph": 3050,
      "content": 3051,
      "ending": 3052,
      "bonds": 3053,
      "lic": 3054,
      "explor": 3055,
      "sources": 3056,
      "joint": 3057,
      "oh": 3058,
      "##erv": 3059,
      "##uments": 3060,
      "reform": 3061,
      "claimed": 3062,
      "director": 3063,
      "differ": 3064,
      "insurgents": 3065,
      "##maker": 3066,
      "##he": 3067,
      "ford": 3068,
      "bob": 3069,
      "##ockey": 3070,
      "entertain": 3071,
      "acquire": 3072,
      "millions": 3073,
      "cas": 3074,
      "rog": 3075,
      "##ari": 3076,
      "moved": 3077,
      "##itional": 3078,
      "minnes": 3079,
      "vent": 3080,
      "posts": 3081,
      "greece": 3082,
      "wounded": 3083,
      "pilots": 3084,
      "spokesman": 3085,
      "gm": 3086,
      "inning": 3087,
      "##vention": 3088,
      "minnesota": 3089,
      "why": 3090,
      "indonesia": 3091,
      "##ss": 3092,
      "##ively": 3093,
      "flu": 3094,
      "mortg": 3095,
      "nhl": 3096,
      "##ored": 3097,
      "##ained": 3098,
      "flood": 3099,
      "patri": 3100,
      "boss": 3101,
      "cross": 3102,
      "kick": 3103,
      "##itial": 3104,
      "steve": 3105,
      "protect": 3106,
      "poor": 3107,
      "gives": 3108,
      "initial": 3109,
      "##ifying": 3110,
      "pict": 3111,
      "turkey": 3112,
      "environment": 3113,
      "march": 3114,
      "opened": 3115,
      "very": 3116,
      "flat": 3117,
      "plane": 3118,
      "confidence": 3119,
      "restr": 3120,
      "##ills": 3121,
      "course": 3122,
      "received": 3123,
      "oak": 3124,
      "single": 3125,
      "virginia": 3126,
      "coup": 3127,
      "disappoin": 3128,
      "##bi": 3129,
      "##lywood": 3130,
      "##bn": 3131,
      "##inger": 3132,
      "##isc": 3133,
      "save": 3134,
      "evidence": 3135,
      "mix": 3136,
      "airport": 3137,
      "talk": 3138,
      "advanced": 3139,
      "huge": 3140,
      "dod": 3141,
      "didn": 3142,
      "##ilities": 3143,
      "stage": 3144,
      "smart": 3145,
      "suspended": 3146,
      "funds": 3147,
      "celebr": 3148,
      "cleric": 3149,
      "##ibility": 3150,
      "chelsea": 3151,
      "shoot": 3152,
      "ko": 3153,
      "##ently": 3154,
      "##aded": 3155,
      "decline": 3156,
      "carry": 3157,
      "distrib": 3158,
      "##ca": 3159,
      "result": 3160,
      "vehic": 3161,
      "hurt": 3162,
      "##yle": 3163,
      "##erate": 3164,
      "##umped": 3165,
      "voters": 3166,
      "60": 3167,
      "gri": 3168,
      "sit": 3169,
      "##mers": 3170,
      "plat": 3171,
      "having": 3172,
      "guil": 3173,
      "falls": 3174,
      "seeking": 3175,
      "copy": 3176,
      "diplom": 3177,
      "##craft": 3178,
      "##uing": 3179,
      "deter": 3180,
      "shi": 3181,
      "washingtonpost": 3182,
      "doesn": 3183,
      "esc": 3184,
      "##oes": 3185,
      "##lish": 3186,
      "remains": 3187,
      "homes": 3188,
      "tennis": 3189,
      "border": 3190,
      "sanct": 3191,
      "fle": 3192,
      "temp": 3193,
      "##rich": 3194,
      "##west": 3195,
      "##ein": 3196,
      "toll": 3197,
      "coal": 3198,
      "related": 3199,
      "justice": 3200,
      "continues": 3201,
      "device": 3202,
      "july": 3203,
      "##beat": 3204,
      "guilty": 3205,
      "pain": 3206,
      "tiger": 3207,
      "##uled": 3208,
      "raise": 3209,
      "memory": 3210,
      "##na": 3211,
      "panel": 3212,
      "##hy": 3213,
      "leads": 3214,
      "cardinals": 3215,
      "murder": 3216,
      "non": 3217,
      "##iest": 3218,
      "##atory": 3219,
      "moves": 3220,
      "dispute": 3221,
      "##bor": 3222,
      "##uries": 3223,
      "able": 3224,
      "supreme": 3225,
      "ruled": 3226,
      "verd": 3227,
      "total": 3228,
      "winner": 3229,
      "suit": 3230,
      "suggest": 3231,
      "ll": 3232,
      "reds": 3233,
      "##ought": 3234,
      "january": 3235,
      "thanks": 3236,
      "nextel": 3237,
      "explosion": 3238,
      "counter": 3239,
      "gar": 3240,
      "##ma": 3241,
      "##orld": 3242,
      "attorn": 3243,
      "committ": 3244,
      "sharing": 3245,
      "protection": 3246,
      "banks": 3247,
      "settlement": 3248,
      "attorney": 3249,
      "##pan": 3250,
      "##aring": 3251,
      "teleph": 3252,
      "mexico": 3253,
      "lay": 3254,
      "sad": 3255,
      "deficit": 3256,
      "missile": 3257,
      "futures": 3258,
      "philipp": 3259,
      "acquisition": 3260,
      "##iring": 3261,
      "expects": 3262,
      "successful": 3263,
      "spanish": 3264,
      "zeal": 3265,
      "##uke": 3266,
      "##obe": 3267,
      "hollywood": 3268,
      "korean": 3269,
      "##ova": 3270,
      "##uted": 3271,
      "itunes": 3272,
      "pled": 3273,
      "enc": 3274,
      "minutes": 3275,
      "##ences": 3276,
      "proposed": 3277,
      "scandal": 3278,
      "creat": 3279,
      "vend": 3280,
      "##oles": 3281,
      "climb": 3282,
      "mars": 3283,
      "slip": 3284,
      "##enez": 3285,
      "files": 3286,
      "howard": 3287,
      "increasing": 3288,
      "alex": 3289,
      "vac": 3290,
      "wel": 3291,
      "##unt": 3292,
      "below": 3293,
      "##ny": 3294,
      "##ring": 3295,
      "worries": 3296,
      "played": 3297,
      "approach": 3298,
      "senate": 3299,
      "##ati": 3300,
      "##factor": 3301,
      "sanctions": 3302,
      "sir": 3303,
      "##ada": 3304,
      "solar": 3305,
      "statement": 3306,
      "entertainment": 3307,
      "pace": 3308,
      "##bo": 3309,
      "newsfactor": 3310,
      "leaving": 3311,
      "reason": 3312,
      "started": 3313,
      "karz": 3314,
      "80": 3315,
      "##ask": 3316,
      "freed": 3317,
      "##ushing": 3318,
      "carol": 3319,
      "irish": 3320,
      "committee": 3321,
      "wanted": 3322,
      "mw": 3323,
      "ps": 3324,
      "##self": 3325,
      "interim": 3326,
      "these": 3327,
      "classic": 3328,
      "beating": 3329,
      "resc": 3330,
      "insp": 3331,
      "palm": 3332,
      "powell": 3333,
      "zealand": 3334,
      "karzai": 3335,
      "ow": 3336,
      "##ental": 3337,
      "forced": 3338,
      "##igan": 3339,
      "servers": 3340,
      "auto": 3341,
      "kab": 3342,
      "weather": 3343,
      "movie": 3344,
      "catch": 3345,
      "##ansas": 3346,
      "supplies": 3347,
      "threatened": 3348,
      "outp": 3349,
      "electronic": 3350,
      "intellig": 3351,
      "cur": 3352,
      "integr": 3353,
      "progress": 3354,
      "##fox": 3355,
      "illegal": 3356,
      "song": 3357,
      "##pal": 3358,
      "##idents": 3359,
      "shopping": 3360,
      "cro": 3361,
      "mel": 3362,
      "rule": 3363,
      "yen": 3364,
      "##anch": 3365,
      "science": 3366,
      "organization": 3367,
      "book": 3368,
      "kong": 3369,
      "sha": 3370,
      "crack": 3371,
      "cab": 3372,
      "hat": 3373,
      "##oul": 3374,
      "aircraft": 3375,
      "offered": 3376,
      "crowd": 3377,
      "chain": 3378,
      "##aking": 3379,
      "needs": 3380,
      "firefox": 3381,
      "application": 3382,
      "platform": 3383,
      "whose": 3384,
      "buying": 3385,
      "sweep": 3386,
      "confl": 3387,
      "##hi": 3388,
      "embass": 3389,
      "slightly": 3390,
      "cast": 3391,
      "##iox": 3392,
      "edge": 3393,
      "inflation": 3394,
      "##eda": 3395,
      "sport": 3396,
      "sharply": 3397,
      "aol": 3398,
      "core": 3399,
      "hong": 3400,
      "surf": 3401,
      "newspaper": 3402,
      "##mas": 3403,
      "terrorist": 3404,
      "questions": 3405,
      "rejected": 3406,
      "connect": 3407,
      "bol": 3408,
      "##istic": 3409,
      "warner": 3410,
      "targets": 3411,
      "broadcast": 3412,
      "carrier": 3413,
      "masters": 3414,
      "citing": 3415,
      "wide": 3416,
      "##rial": 3417,
      "##uster": 3418,
      "stewart": 3419,
      "room": 3420,
      "eb": 3421,
      "##ew": 3422,
      "##tered": 3423,
      "makers": 3424,
      "formula": 3425,
      "lear": 3426,
      "member": 3427,
      "##rac": 3428,
      "##ko": 3429,
      "##inn": 3430,
      "dropped": 3431,
      "sector": 3432,
      "##irl": 3433,
      "refug": 3434,
      "rene": 3435,
      "ten": 3436,
      "ends": 3437,
      "returned": 3438,
      "thought": 3439,
      "wrap": 3440,
      "##tim": 3441,
      "##orrow": 3442,
      "##ires": 3443,
      "##epend": 3444,
      "eastern": 3445,
      "proposal": 3446,
      "300": 3447,
      "cable": 3448,
      "problem": 3449,
      "kabul": 3450,
      "dolph": 3451,
      "hack": 3452,
      "james": 3453,
      "occ": 3454,
      "rav": 3455,
      "opec": 3456,
      "became": 3457,
      "ukraine": 3458,
      "mortgage": 3459,
      "patch": 3460,
      "##held": 3461,
      "##vin": 3462,
      "##agu": 3463,
      "abu": 3464,
      "brand": 3465,
      "explod": 3466,
      "provider": 3467,
      "owners": 3468,
      "##mun": 3469,
      "batt": 3470,
      "qaeda": 3471,
      "patriots": 3472,
      "si": 3473,
      "##bed": 3474,
      "independ": 3475,
      "orders": 3476,
      "pcs": 3477,
      "easy": 3478,
      "cn": 3479,
      "names": 3480,
      "ans": 3481,
      "##imes": 3482,
      "prix": 3483,
      "##comp": 3484,
      "represent": 3485,
      "nl": 3486,
      "ray": 3487,
      "sadr": 3488,
      "##dog": 3489,
      "##iny": 3490,
      "nigeria": 3491,
      "oakland": 3492,
      "jose": 3493,
      "##udi": 3494,
      "nyse": 3495,
      "eagles": 3496,
      "hockey": 3497,
      "##force": 3498,
      "tonight": 3499,
      "highest": 3500,
      "subs": 3501,
      "crew": 3502,
      "voting": 3503,
      "important": 3504,
      "dan": 3505,
      "sky": 3506,
      "bron": 3507,
      "##ograph": 3508,
      "##medi": 3509,
      "ariz": 3510,
      "bry": 3511,
      "dall": 3512,
      "##usal": 3513,
      "prior": 3514,
      "##ulf": 3515,
      "weigh": 3516,
      "##onduct": 3517,
      "shareholders": 3518,
      "ohio": 3519,
      "carolina": 3520,
      "cra": 3521,
      "secure": 3522,
      "signific": 3523,
      "needed": 3524,
      "favor": 3525,
      "pers": 3526,
      "##ients": 3527,
      "##nam": 3528,
      "##rian": 3529,
      "trib": 3530,
      "mis": 3531,
      "feder": 3532,
      "recently": 3533,
      "auction": 3534,
      "index": 3535,
      "premier": 3536,
      "lose": 3537,
      "##oric": 3538,
      "amaz": 3539,
      "##reek": 3540,
      "##oney": 3541,
      "broker": 3542,
      "msn": 3543,
      "ul": 3544,
      "finish": 3545,
      "blow": 3546,
      "candidate": 3547,
      "41": 3548,
      "son": 3549,
      "alth": 3550,
      "heat": 3551,
      "airb": 3552,
      "cat": 3553,
      "frank": 3554,
      "uranium": 3555,
      "ivory": 3556,
      "christmas": 3557,
      "da": 3558,
      "##ery": 3559,
      "relief": 3560,
      "ministry": 3561,
      "dream": 3562,
      "dolphins": 3563,
      "amb": 3564,
      "venture": 3565,
      "nob": 3566,
      "##iar": 3567,
      "##makers": 3568,
      "haiti": 3569,
      "arms": 3570,
      "although": 3571,
      "kh": 3572,
      "sending": 3573,
      "##iders": 3574,
      "##ado": 3575,
      "##thing": 3576,
      "kidnapp": 3577,
      "tools": 3578,
      "embassy": 3579,
      "certain": 3580,
      "obs": 3581,
      "pension": 3582,
      "expos": 3583,
      "accus": 3584,
      "operation": 3585,
      "michigan": 3586,
      "enron": 3587,
      "##gery": 3588,
      "longer": 3589,
      "bombs": 3590,
      "optim": 3591,
      "intelligence": 3592,
      "32": 3593,
      "##come": 3594,
      "bombing": 3595,
      "closed": 3596,
      "processor": 3597,
      "dallas": 3598,
      "##right": 3599,
      "brought": 3600,
      "hoping": 3601,
      "kept": 3602,
      "sans": 3603,
      "micro": 3604,
      "linked": 3605,
      "negotiations": 3606,
      "spacec": 3607,
      "thail": 3608,
      "impact": 3609,
      "jeff": 3610,
      "supercomp": 3611,
      "royal": 3612,
      "spacecraft": 3613,
      "tests": 3614,
      "##ken": 3615,
      "cool": 3616,
      "earthqu": 3617,
      "##idge": 3618,
      "built": 3619,
      "carl": 3620,
      "consecut": 3621,
      "mush": 3622,
      "immedi": 3623,
      "consecutive": 3624,
      "esp": 3625,
      "fer": 3626,
      "hur": 3627,
      "coop": 3628,
      "scr": 3629,
      "crimin": 3630,
      "liver": 3631,
      "features": 3632,
      "merck": 3633,
      "ring": 3634,
      "surgery": 3635,
      "##coming": 3636,
      "thailand": 3637,
      "##eg": 3638,
      "andre": 3639,
      "stro": 3640,
      "exc": 3641,
      "passes": 3642,
      "##burgh": 3643,
      "cards": 3644,
      "tack": 3645,
      "van": 3646,
      "marsh": 3647,
      "relations": 3648,
      "liber": 3649,
      "commit": 3650,
      "training": 3651,
      "begins": 3652,
      "issued": 3653,
      "##lined": 3654,
      "programs": 3655,
      "scheduled": 3656,
      "mad": 3657,
      "tie": 3658,
      "shock": 3659,
      "unc": 3660,
      "worldwide": 3661,
      "planning": 3662,
      "striker": 3663,
      "hamas": 3664,
      "practice": 3665,
      "assault": 3666,
      "deploy": 3667,
      "strategy": 3668,
      "ben": 3669,
      "innings": 3670,
      "##oma": 3671,
      "feel": 3672,
      "troubl": 3673,
      "hostile": 3674,
      "ariel": 3675,
      "significant": 3676,
      "nik": 3677,
      "vill": 3678,
      "##idel": 3679,
      "developed": 3680,
      "figures": 3681,
      "spyware": 3682,
      "64": 3683,
      "danger": 3684,
      "kansas": 3685,
      "aftern": 3686,
      "virt": 3687,
      "eyes": 3688,
      "controversial": 3689,
      "dismiss": 3690,
      "mets": 3691,
      "##cs": 3692,
      "##iles": 3693,
      "##isl": 3694,
      "swed": 3695,
      "calling": 3696,
      "deadline": 3697,
      "vice": 3698,
      "##iod": 3699,
      "tog": 3700,
      "##iled": 3701,
      "motors": 3702,
      "ill": 3703,
      "manufactur": 3704,
      "rum": 3705,
      "wi": 3706,
      "unl": 3707,
      "invent": 3708,
      "angels": 3709,
      "unveils": 3710,
      "jav": 3711,
      "##oom": 3712,
      "##cos": 3713,
      "##estic": 3714,
      "surge": 3715,
      "himself": 3716,
      "photo": 3717,
      "ebay": 3718,
      "together": 3719,
      "##car": 3720,
      "##arian": 3721,
      "##ched": 3722,
      "webs": 3723,
      "extra": 3724,
      "veter": 3725,
      "cubs": 3726,
      "output": 3727,
      "33": 3728,
      "mour": 3729,
      "venez": 3730,
      "isn": 3731,
      "##izon": 3732,
      "lawsuits": 3733,
      "georg": 3734,
      "venezuel": 3735,
      "34": 3736,
      "lack": 3737,
      "##ten": 3738,
      "##elves": 3739,
      "stem": 3740,
      "##olis": 3741,
      "saudi": 3742,
      "budget": 3743,
      "pitts": 3744,
      "mixed": 3745,
      "penn": 3746,
      "ts": 3747,
      "legisl": 3748,
      "novell": 3749,
      "dro": 3750,
      "ties": 3751,
      "##cing": 3752,
      "##duce": 3753,
      "marketing": 3754,
      "raises": 3755,
      "afternoon": 3756,
      "##igning": 3757,
      "##veland": 3758,
      "reduce": 3759,
      "soldier": 3760,
      "cleveland": 3761,
      "##itzer": 3762,
      "recovery": 3763,
      "ky": 3764,
      "prosp": 3765,
      "blog": 3766,
      "common": 3767,
      "##encies": 3768,
      "buys": 3769,
      "knock": 3770,
      "fa": 3771,
      "live": 3772,
      "mp": 3773,
      "##iling": 3774,
      "##ansion": 3775,
      "eye": 3776,
      "airbus": 3777,
      "thom": 3778,
      "##iconduct": 3779,
      "worst": 3780,
      "##izing": 3781,
      "hotel": 3782,
      "semiconduct": 3783,
      "advertising": 3784,
      "saw": 3785,
      "parts": 3786,
      "##inal": 3787,
      "fort": 3788,
      "##endo": 3789,
      "struck": 3790,
      "facing": 3791,
      "martin": 3792,
      "damage": 3793,
      "pacific": 3794,
      "struggling": 3795,
      "caused": 3796,
      "subsid": 3797,
      "45": 3798,
      "log": 3799,
      "##ystem": 3800,
      "##fe": 3801,
      "##iter": 3802,
      "greens": 3803,
      "charl": 3804,
      "##ification": 3805,
      "38": 3806,
      "resol": 3807,
      "pakistani": 3808,
      "wrong": 3809,
      "instead": 3810,
      "666": 3811,
      "##ios": 3812,
      "##house": 3813,
      "enrich": 3814,
      "##enced": 3815,
      "published": 3816,
      "revealed": 3817,
      "pittsburgh": 3818,
      "55": 3819,
      "jet": 3820,
      "things": 3821,
      "threw": 3822,
      "plot": 3823,
      "climate": 3824,
      "serif": 3825,
      "period": 3826,
      "helvet": 3827,
      "##ashed": 3828,
      "producer": 3829,
      "approval": 3830,
      "##666": 3831,
      "arial": 3832,
      "different": 3833,
      "verdana": 3834,
      "conflict": 3835,
      "666666": 3836,
      "helvetica": 3837,
      "##real": 3838,
      "goals": 3839,
      "bir": 3840,
      "dail": 3841,
      "hon": 3842,
      "surprise": 3843,
      "viox": 3844,
      "zone": 3845,
      "vioxx": 3846,
      "spl": 3847,
      "backed": 3848,
      "industrial": 3849,
      "patent": 3850,
      "delayed": 3851,
      "jerusal": 3852,
      "jerusalem": 3853,
      "greek": 3854,
      "lif": 3855,
      "pent": 3856,
      "wake": 3857,
      "##apolis": 3858,
      "moving": 3859,
      "massive": 3860,
      "##itors": 3861,
      "stars": 3862,
      "retailers": 3863,
      "critical": 3864,
      "manufacturing": 3865,
      "federer": 3866,
      "daily": 3867,
      "armed": 3868,
      "advance": 3869,
      "republican": 3870,
      "argent": 3871,
      "troubled": 3872,
      "##gn": 3873,
      "anim": 3874,
      "convention": 3875,
      "interview": 3876,
      "smith": 3877,
      "ordered": 3878,
      "moment": 3879,
      "nint": 3880,
      "##uation": 3881,
      "##ads": 3882,
      "finals": 3883,
      "alliance": 3884,
      "moz": 3885,
      "##portun": 3886,
      "summit": 3887,
      "itself": 3888,
      "opportun": 3889,
      "##angu": 3890,
      "image": 3891,
      "##arraf": 3892,
      "girl": 3893,
      "sel": 3894,
      "##iation": 3895,
      "noteb": 3896,
      "decades": 3897,
      "helping": 3898,
      "details": 3899,
      "arizona": 3900,
      "musharraf": 3901,
      "##oint": 3902,
      "cutting": 3903,
      "nintendo": 3904,
      "sbc": 3905,
      "##pool": 3906,
      "##war": 3907,
      "##oph": 3908,
      "subsc": 3909,
      "estimates": 3910,
      "bears": 3911,
      "decade": 3912,
      "yard": 3913,
      "leban": 3914,
      "positive": 3915,
      "request": 3916,
      "cing": 3917,
      "story": 3918,
      "terms": 3919,
      "delhi": 3920,
      "knee": 3921,
      "operator": 3922,
      "victims": 3923,
      "hous": 3924,
      "va": 3925,
      "##light": 3926,
      "##ania": 3927,
      "##eth": 3928,
      "abb": 3929,
      "warming": 3930,
      "mean": 3931,
      "surpr": 3932,
      "ministers": 3933,
      "owner": 3934,
      "malays": 3935,
      "cingular": 3936,
      "70": 3937,
      "cause": 3938,
      "pound": 3939,
      "syd": 3940,
      "troub": 3941,
      "ipo": 3942,
      "domestic": 3943,
      "pulled": 3944,
      "##essional": 3945,
      "gather": 3946,
      "pra": 3947,
      "sam": 3948,
      "thr": 3949,
      "##aces": 3950,
      "indic": 3951,
      "extended": 3952,
      "probably": 3953,
      "rangers": 3954,
      "subscri": 3955,
      "sydney": 3956,
      "atom": 3957,
      "address": 3958,
      "complete": 3959,
      "propert": 3960,
      "machines": 3961,
      "trophy": 3962,
      "saddam": 3963,
      "income": 3964,
      "showing": 3965,
      "ba": 3966,
      "pair": 3967,
      "promp": 3968,
      "switch": 3969,
      "holds": 3970,
      "racing": 3971,
      "display": 3972,
      "cow": 3973,
      "lands": 3974,
      "puts": 3975,
      "via": 3976,
      "##itution": 3977,
      "##cher": 3978,
      "##kei": 3979,
      "finds": 3980,
      "scott": 3981,
      "nikkei": 3982,
      "opens": 3983,
      "community": 3984,
      "something": 3985,
      "jacks": 3986,
      "stun": 3987,
      "introduced": 3988,
      "nec": 3989,
      "ped": 3990,
      "##fect": 3991,
      "highs": 3992,
      "planet": 3993,
      "demands": 3994,
      "deadly": 3995,
      "species": 3996,
      "numbers": 3997,
      "celt": 3998,
      "appeared": 3999,
      "##iscal": 4000,
      "liverpool": 4001,
      "##ystems": 4002,
      "fair": 4003,
      "session": 4004,
      "vul": 4005,
      "spread": 4006,
      "replace": 4007,
      "band": 4008,
      "dies": 4009,
      "lad": 4010,
      "##bour": 4011,
      "##mn": 4012,
      "##ara": 4013,
      "const": 4014,
      "sea": 4015,
      "falling": 4016,
      "typh": 4017,
      "piracy": 4018,
      "nar": 4019,
      "##inet": 4020,
      "##ola": 4021,
      "ask": 4022,
      "##arta": 4023,
      "cancer": 4024,
      "flights": 4025,
      "electric": 4026,
      "cars": 4027,
      "opener": 4028,
      "prevent": 4029,
      "returns": 4030,
      "breaking": 4031,
      "semiconductor": 4032,
      "jackson": 4033,
      "luc": 4034,
      "rook": 4035,
      "##ding": 4036,
      "##kn": 4037,
      "##imir": 4038,
      "dise": 4039,
      "disast": 4040,
      "inside": 4041,
      "alleg": 4042,
      "pitcher": 4043,
      "touchdowns": 4044,
      "backs": 4045,
      "fann": 4046,
      "##keep": 4047,
      "flash": 4048,
      "okl": 4049,
      "renew": 4050,
      "dame": 4051,
      "jim": 4052,
      "vlad": 4053,
      "spent": 4054,
      "orig": 4055,
      "notre": 4056,
      "2000": 4057,
      "benefits": 4058,
      "ele": 4059,
      "##night": 4060,
      "chec": 4061,
      "expansion": 4062,
      "admit": 4063,
      "teen": 4064,
      "raising": 4065,
      "antit": 4066,
      "century": 4067,
      "beginning": 4068,
      "fannie": 4069,
      "ep": 4070,
      "##wer": 4071,
      "shift": 4072,
      "plc": 4073,
      "teh": 4074,
      "flag": 4075,
      "minute": 4076,
      "colomb": 4077,
      "passed": 4078,
      "challeng": 4079,
      "believe": 4080,
      "screen": 4081,
      "km": 4082,
      "ron": 4083,
      "sand": 4084,
      "toy": 4085,
      "sevent": 4086,
      "developing": 4087,
      "##lett": 4088,
      "prince": 4089,
      "##eman": 4090,
      "watchdog": 4091,
      "##going": 4092,
      "message": 4093,
      "arrived": 4094,
      "discovered": 4095,
      "roger": 4096,
      "criminal": 4097,
      "##fer": 4098,
      "oppon": 4099,
      "score": 4100,
      "broke": 4101,
      "links": 4102,
      "testing": 4103,
      "verizon": 4104,
      "##ha": 4105,
      "tosh": 4106,
      "diego": 4107,
      "beck": 4108,
      "hurricanes": 4109,
      "utah": 4110,
      "friend": 4111,
      "tehran": 4112,
      "date": 4113,
      "ec": 4114,
      "jason": 4115,
      "##ano": 4116,
      "adop": 4117,
      "assist": 4118,
      "extend": 4119,
      "anticip": 4120,
      "adds": 4121,
      "upset": 4122,
      "iraqis": 4123,
      "paid": 4124,
      "associated": 4125,
      "aims": 4126,
      "commerce": 4127,
      "bryant": 4128,
      "vladimir": 4129,
      "purs": 4130,
      "##outh": 4131,
      "##elder": 4132,
      "##amb": 4133,
      "resolution": 4134,
      "handheld": 4135,
      "##ladesh": 4136,
      "bangladesh": 4137,
      "astrona": 4138,
      "43": 4139,
      "fiscal": 4140,
      "##ival": 4141,
      "scot": 4142,
      "salv": 4143,
      "records": 4144,
      "emerg": 4145,
      "##utions": 4146,
      "##ements": 4147,
      "polls": 4148,
      "value": 4149,
      "und": 4150,
      "##ensions": 4151,
      "##berg": 4152,
      "english": 4153,
      "historic": 4154,
      "vulner": 4155,
      "ml": 4156,
      "##pers": 4157,
      "##icon": 4158,
      "filing": 4159,
      "students": 4160,
      "threats": 4161,
      "remained": 4162,
      "dodgers": 4163,
      "amazon": 4164,
      "done": 4165,
      "nort": 4166,
      "penal": 4167,
      "##apt": 4168,
      "90": 4169,
      "mater": 4170,
      "##lan": 4171,
      "##roy": 4172,
      "##ucks": 4173,
      "appears": 4174,
      "##oys": 4175,
      "seconds": 4176,
      "caps": 4177,
      "announces": 4178,
      "living": 4179,
      "unions": 4180,
      "alter": 4181,
      "annan": 4182,
      "slam": 4183,
      "miles": 4184,
      "dram": 4185,
      "falluja": 4186,
      "baltim": 4187,
      "typhoon": 4188,
      "baltimore": 4189,
      "barg": 4190,
      "##onstr": 4191,
      "quit": 4192,
      "##ounts": 4193,
      "48": 4194,
      "las": 4195,
      "##eas": 4196,
      "##ucture": 4197,
      "jak": 4198,
      "lot": 4199,
      "rand": 4200,
      "agent": 4201,
      "heating": 4202,
      "microsystems": 4203,
      "assets": 4204,
      "model": 4205,
      "tig": 4206,
      "neigh": 4207,
      "##ques": 4208,
      "draft": 4209,
      "votes": 4210,
      "silver": 4211,
      "options": 4212,
      "indonesian": 4213,
      "hewlett": 4214,
      "mozilla": 4215,
      "kid": 4216,
      "##ading": 4217,
      "cruc": 4218,
      "nothing": 4219,
      "##iba": 4220,
      "##wards": 4221,
      "urges": 4222,
      "harm": 4223,
      "##exp": 4224,
      "montreal": 4225,
      "cos": 4226,
      "##inh": 4227,
      "traders": 4228,
      "portable": 4229,
      "forecasts": 4230,
      "telephone": 4231,
      "antitrust": 4232,
      "fish": 4233,
      "mary": 4234,
      "defence": 4235,
      "colin": 4236,
      "banking": 4237,
      "tried": 4238,
      "voice": 4239,
      "corporation": 4240,
      "doctors": 4241,
      "june": 4242,
      "gh": 4243,
      "rush": 4244,
      "sams": 4245,
      "##my": 4246,
      "stead": 4247,
      "offense": 4248,
      "setting": 4249,
      "holdings": 4250,
      "homer": 4251,
      "packard": 4252,
      "silicon": 4253,
      "greenspan": 4254,
      "mun": 4255,
      "##ml": 4256,
      "deals": 4257,
      "cover": 4258,
      "pharm": 4259,
      "province": 4260,
      "driver": 4261,
      "format": 4262,
      "resume": 4263,
      "samsung": 4264,
      "coc": 4265,
      "mr": 4266,
      "##well": 4267,
      "##isions": 4268,
      "spir": 4269,
      "exports": 4270,
      "residents": 4271,
      "northeast": 4272,
      "fastest": 4273,
      "hewitt": 4274,
      "witnesses": 4275,
      "explorer": 4276,
      "bern": 4277,
      "gulf": 4278,
      "nin": 4279,
      "##backs": 4280,
      "##rad": 4281,
      "steps": 4282,
      "tomorrow": 4283,
      "shuttle": 4284,
      "leaves": 4285,
      "fel": 4286,
      "##dick": 4287,
      "##roup": 4288,
      "regist": 4289,
      "republic": 4290,
      "georgia": 4291,
      "material": 4292,
      "fan": 4293,
      "lank": 4294,
      "##ils": 4295,
      "##iment": 4296,
      "appe": 4297,
      "manning": 4298,
      "##ody": 4299,
      "starts": 4300,
      "treasury": 4301,
      "rookie": 4302,
      "seventh": 4303,
      "pen": 4304,
      "##illed": 4305,
      "ups": 4306,
      "reduc": 4307,
      "reportedly": 4308,
      "nascar": 4309,
      "sixth": 4310,
      "braves": 4311,
      "install": 4312,
      "colorado": 4313,
      "purchase": 4314,
      "cabinet": 4315,
      "jakarta": 4316,
      "oust": 4317,
      "anc": 4318,
      "conduc": 4319,
      "twice": 4320,
      "text": 4321,
      "defensive": 4322,
      "beats": 4323,
      "qualifying": 4324,
      "announcement": 4325,
      "toshiba": 4326,
      "jack": 4327,
      "pip": 4328,
      "word": 4329,
      "gov": 4330,
      "sudanese": 4331,
      "gates": 4332,
      "##ius": 4333,
      "prin": 4334,
      "shell": 4335,
      "##ope": 4336,
      "2002": 4337,
      "flaw": 4338,
      "bills": 4339,
      "handed": 4340,
      "speech": 4341,
      "blasts": 4342,
      "wounding": 4343,
      "java": 4344,
      "tigers": 4345,
      "75": 4346,
      "pt": 4347,
      "wil": 4348,
      "##ato": 4349,
      "##une": 4350,
      "beach": 4351,
      "marath": 4352,
      "upgrade": 4353,
      "exploded": 4354,
      "sie": 4355,
      "##arters": 4356,
      "levels": 4357,
      "theft": 4358,
      "pric": 4359,
      "##oping": 4360,
      "##isted": 4361,
      "plus": 4362,
      "computing": 4363,
      "walk": 4364,
      "copyright": 4365,
      "fox": 4366,
      "ku": 4367,
      "ta": 4368,
      "earn": 4369,
      "democracy": 4370,
      "faster": 4371,
      "enrichment": 4372,
      "oklah": 4373,
      "bin": 4374,
      "gy": 4375,
      "rall": 4376,
      "zimb": 4377,
      "chen": 4378,
      "partner": 4379,
      "strikes": 4380,
      "simp": 4381,
      "dozens": 4382,
      "marathon": 4383,
      "zimbab": 4384,
      "##stand": 4385,
      "saturn": 4386,
      "mae": 4387,
      "managers": 4388,
      "##ruption": 4389,
      "oklahoma": 4390,
      "solid": 4391,
      "roddick": 4392,
      "zimbabwe": 4393,
      "##orter": 4394,
      "inn": 4395,
      "really": 4396,
      "##aks": 4397,
      "##ighth": 4398,
      "allowed": 4399,
      "##atings": 4400,
      "##ology": 4401,
      "##ahe": 4402,
      "becoming": 4403,
      "halt": 4404,
      "semif": 4405,
      "considering": 4406,
      "partnership": 4407,
      "coalition": 4408,
      "rare": 4409,
      "##abad": 4410,
      "##izes": 4411,
      "candidates": 4412,
      "petro": 4413,
      "traffic": 4414,
      "eth": 4415,
      "areas": 4416,
      "2001": 4417,
      "suffered": 4418,
      "allegations": 4419,
      "sri": 4420,
      "##ties": 4421,
      "##oud": 4422,
      "##tha": 4423,
      "##izer": 4424,
      "defending": 4425,
      "headed": 4426,
      "advant": 4427,
      "associates": 4428,
      "##inks": 4429,
      "ank": 4430,
      "unexp": 4431,
      "sav": 4432,
      "spar": 4433,
      "age": 4434,
      "700": 4435,
      "titan": 4436,
      "standards": 4437,
      "telecommun": 4438,
      "unexpected": 4439,
      "51": 4440,
      "social": 4441,
      "appeals": 4442,
      "az": 4443,
      "thing": 4444,
      "##acher": 4445,
      "goods": 4446,
      "safe": 4447,
      "awaited": 4448,
      "crucial": 4449,
      "53": 4450,
      "##omm": 4451,
      "nepal": 4452,
      "publish": 4453,
      "scores": 4454,
      "customer": 4455,
      "familiar": 4456,
      "tenness": 4457,
      "600": 4458,
      "bes": 4459,
      "der": 4460,
      "##pts": 4461,
      "##iot": 4462,
      "##ship": 4463,
      "often": 4464,
      "peer": 4465,
      "treatment": 4466,
      "notebook": 4467,
      "dual": 4468,
      "fat": 4469,
      "sound": 4470,
      "sure": 4471,
      "thems": 4472,
      "##uty": 4473,
      "twins": 4474,
      "closing": 4475,
      "currency": 4476,
      "spaces": 4477,
      "lawyers": 4478,
      "themselves": 4479,
      "sens": 4480,
      "anahe": 4481,
      "##oty": 4482,
      "discl": 4483,
      "columb": 4484,
      "keeps": 4485,
      "doubt": 4486,
      "atomic": 4487,
      "emergency": 4488,
      "anaheim": 4489,
      "##box": 4490,
      "##gen": 4491,
      "majority": 4492,
      "grew": 4493,
      "hearing": 4494,
      "jac": 4495,
      "ways": 4496,
      "ads": 4497,
      "defin": 4498,
      "datab": 4499,
      "rockets": 4500,
      "package": 4501,
      "richard": 4502,
      "tennessee": 4503,
      "##season": 4504,
      "bott": 4505,
      "atlantic": 4506,
      "retirement": 4507,
      "cold": 4508,
      "ease": 4509,
      "##esc": 4510,
      "hole": 4511,
      "myster": 4512,
      "pacers": 4513,
      "mist": 4514,
      "mine": 4515,
      "##eline": 4516,
      "chile": 4517,
      "bey": 4518,
      "proj": 4519,
      "gunmen": 4520,
      "strateg": 4521,
      "ninth": 4522,
      "ven": 4523,
      "chann": 4524,
      "abuse": 4525,
      "allows": 4526,
      "attend": 4527,
      "spring": 4528,
      "bodies": 4529,
      "disease": 4530,
      "pun": 4531,
      "##wis": 4532,
      "##enses": 4533,
      "flo": 4534,
      "swiss": 4535,
      "rebound": 4536,
      "turns": 4537,
      "rejects": 4538,
      "prepared": 4539,
      "philippines": 4540,
      "##aries": 4541,
      "option": 4542,
      "##ght": 4543,
      "##ussels": 4544,
      "edition": 4545,
      "schedule": 4546,
      "cnn": 4547,
      "telecommunications": 4548,
      "behead": 4549,
      "allawi": 4550,
      "syria": 4551,
      "delays": 4552,
      "created": 4553,
      "deaths": 4554,
      "turk": 4555,
      "changed": 4556,
      "cyber": 4557,
      "seems": 4558,
      "shiite": 4559,
      "hub": 4560,
      "huss": 4561,
      "##icult": 4562,
      "ali": 4563,
      "brussels": 4564,
      "regular": 4565,
      "southeast": 4566,
      "wales": 4567,
      "##weight": 4568,
      "nortel": 4569,
      "figh": 4570,
      "##jan": 4571,
      "trust": 4572,
      "sought": 4573,
      "robert": 4574,
      "documents": 4575,
      "supercomputer": 4576,
      "ach": 4577,
      "pact": 4578,
      "inqu": 4579,
      "resour": 4580,
      "perfect": 4581,
      "jew": 4582,
      "wait": 4583,
      "master": 4584,
      "previously": 4585,
      "initi": 4586,
      "##ried": 4587,
      "decide": 4588,
      "missed": 4589,
      "beyond": 4590,
      "cities": 4591,
      "##ither": 4592,
      "martha": 4593,
      "agrees": 4594,
      "quickly": 4595,
      "books": 4596,
      "hamm": 4597,
      "##burg": 4598,
      "prosecutors": 4599,
      "independent": 4600,
      "##oura": 4601,
      "unbeat": 4602,
      "releases": 4603,
      "completed": 4604,
      "magaz": 4605,
      "54": 4606,
      "fine": 4607,
      "wife": 4608,
      "##rict": 4609,
      "##cat": 4610,
      "##cons": 4611,
      "confident": 4612,
      "developer": 4613,
      "holy": 4614,
      "difficult": 4615,
      "cuba": 4616,
      "declared": 4617,
      "3g": 4618,
      "##emb": 4619,
      "capac": 4620,
      "suspects": 4621,
      "frances": 4622,
      "matter": 4623,
      "mutual": 4624,
      "jord": 4625,
      "prel": 4626,
      "finished": 4627,
      "elimin": 4628,
      "grant": 4629,
      "images": 4630,
      "conditions": 4631,
      "paper": 4632,
      "##che": 4633,
      "exec": 4634,
      "##ially": 4635,
      "conserv": 4636,
      "looked": 4637,
      "district": 4638,
      "donald": 4639,
      "finding": 4640,
      "activity": 4641,
      "laden": 4642,
      "beckham": 4643,
      "burn": 4644,
      "##ht": 4645,
      "forest": 4646,
      "uns": 4647,
      "##iction": 4648,
      "info": 4649,
      "charles": 4650,
      "smaller": 4651,
      "complain": 4652,
      "redskins": 4653,
      "veteran": 4654,
      "##otype": 4655,
      "spin": 4656,
      "monitor": 4657,
      "terrorists": 4658,
      "regional": 4659,
      "bringing": 4660,
      "gear": 4661,
      "jumped": 4662,
      "##aling": 4663,
      "react": 4664,
      "mov": 4665,
      "genes": 4666,
      "heads": 4667,
      "helps": 4668,
      "denied": 4669,
      "withdrawal": 4670,
      "bought": 4671,
      "era": 4672,
      "od": 4673,
      "plun": 4674,
      "##ctic": 4675,
      "198": 4676,
      "adding": 4677,
      "speculation": 4678,
      "clean": 4679,
      "apparently": 4680,
      "educ": 4681,
      "##yl": 4682,
      "##jay": 4683,
      "##ione": 4684,
      "##ument": 4685,
      "tops": 4686,
      "putting": 4687,
      "summ": 4688,
      "voted": 4689,
      "prisoners": 4690,
      "preparing": 4691,
      "natural": 4692,
      "overtime": 4693,
      "aub": 4694,
      "gone": 4695,
      "hung": 4696,
      "jam": 4697,
      "jury": 4698,
      "tent": 4699,
      "##ni": 4700,
      "constr": 4701,
      "include": 4702,
      "commissioner": 4703,
      "influ": 4704,
      "environmental": 4705,
      "craig": 4706,
      "42": 4707,
      "pga": 4708,
      "river": 4709,
      "##oke": 4710,
      "##rit": 4711,
      "##me": 4712,
      "##va": 4713,
      "devast": 4714,
      "turning": 4715,
      "opportunity": 4716,
      "jordan": 4717,
      "vod": 4718,
      "##bury": 4719,
      "##lus": 4720,
      "andy": 4721,
      "quiet": 4722,
      "##ecting": 4723,
      "parties": 4724,
      "joined": 4725,
      "denver": 4726,
      "65": 4727,
      "hills": 4728,
      "ice": 4729,
      "##lers": 4730,
      "##icop": 4731,
      "chase": 4732,
      "##anda": 4733,
      "worm": 4734,
      "abs": 4735,
      "schilling": 4736,
      "201": 4737,
      "receiver": 4738,
      "picture": 4739,
      "property": 4740,
      "magazine": 4741,
      "auburn": 4742,
      "cents": 4743,
      "##mond": 4744,
      "chem": 4745,
      "unf": 4746,
      "alan": 4747,
      "enh": 4748,
      "##elled": 4749,
      "haw": 4750,
      "helicop": 4751,
      "bombings": 4752,
      "instant": 4753,
      "indiana": 4754,
      "virtual": 4755,
      "di": 4756,
      "eighth": 4757,
      "sp2": 4758,
      "plays": 4759,
      "##inez": 4760,
      "governor": 4761,
      "indianapolis": 4762,
      "##board": 4763,
      "tiny": 4764,
      "style": 4765,
      "upcoming": 4766,
      "##aval": 4767,
      "sells": 4768,
      "martinez": 4769,
      "shooting": 4770,
      "47": 4771,
      "kind": 4772,
      "tamp": 4773,
      "##wers": 4774,
      "##aming": 4775,
      "##iban": 4776,
      "inquir": 4777,
      "chart": 4778,
      "taliban": 4779,
      "includes": 4780,
      "advis": 4781,
      "boosted": 4782,
      "camera": 4783,
      "priority": 4784,
      "kidnappers": 4785,
      "44": 4786,
      "cer": 4787,
      "sle": 4788,
      "truck": 4789,
      "barry": 4790,
      "chiefs": 4791,
      "link": 4792,
      "##where": 4793,
      "hussein": 4794,
      "chris": 4795,
      "##ously": 4796,
      "command": 4797,
      "championships": 4798,
      "directors": 4799,
      "promot": 4800,
      "earthquake": 4801,
      "trouble": 4802,
      "ds": 4803,
      "spect": 4804,
      "##emy": 4805,
      "rooney": 4806,
      "stronger": 4807,
      "increases": 4808,
      "##awa": 4809,
      "beta": 4810,
      "mcd": 4811,
      "hamid": 4812,
      "believed": 4813,
      "nigerian": 4814,
      "response": 4815,
      "ravens": 4816,
      "scotland": 4817,
      "wond": 4818,
      "##ints": 4819,
      "##ami": 4820,
      "stroke": 4821,
      "disaster": 4822,
      "holl": 4823,
      "ott": 4824,
      "comments": 4825,
      "congo": 4826,
      "always": 4827,
      "scoring": 4828,
      "improved": 4829,
      "multip": 4830,
      "vacc": 4831,
      "vodaf": 4832,
      "dy": 4833,
      "wm": 4834,
      "##ever": 4835,
      "##do": 4836,
      "##zy": 4837,
      "chech": 4838,
      "wasn": 4839,
      "##ivid": 4840,
      "##abilities": 4841,
      "milan": 4842,
      "prep": 4843,
      "assassin": 4844,
      "colts": 4845,
      "crashed": 4846,
      "##castle": 4847,
      "clashes": 4848,
      "vodafone": 4849,
      "bab": 4850,
      "cassin": 4851,
      "##iro": 4852,
      "minor": 4853,
      "broken": 4854,
      "roundup": 4855,
      "keeping": 4856,
      "instit": 4857,
      "breaks": 4858,
      "carrying": 4859,
      "pedro": 4860,
      "lanka": 4861,
      "dun": 4862,
      "rub": 4863,
      "##cle": 4864,
      "##ki": 4865,
      "##ero": 4866,
      "##ador": 4867,
      "##ocol": 4868,
      "##eme": 4869,
      "agencies": 4870,
      "works": 4871,
      "willing": 4872,
      "##rys": 4873,
      "replac": 4874,
      "symb": 4875,
      "narrow": 4876,
      "cassini": 4877,
      "bom": 4878,
      "wenger": 4879,
      "##gar": 4880,
      "arth": 4881,
      "extension": 4882,
      "kevin": 4883,
      "##bean": 4884,
      "transport": 4885,
      "msft": 4886,
      "unbeaten": 4887,
      "movies": 4888,
      "tampa": 4889,
      "cinc": 4890,
      "nom": 4891,
      "##igroup": 4892,
      "usato": 4893,
      "remote": 4894,
      "##apping": 4895,
      "believes": 4896,
      "citiz": 4897,
      "citigroup": 4898,
      "##innati": 4899,
      "spaceship": 4900,
      "cincinnati": 4901,
      "usatoday": 4902,
      "hd": 4903,
      "lions": 4904,
      "mig": 4905,
      "##horn": 4906,
      "seoul": 4907,
      "fred": 4908,
      "phel": 4909,
      "libr": 4910,
      "teamm": 4911,
      "##ierce": 4912,
      "hardware": 4913,
      "estab": 4914,
      "camer": 4915,
      "berlin": 4916,
      "involved": 4917,
      "steelers": 4918,
      "argentina": 4919,
      "dub": 4920,
      "##ka": 4921,
      "##enty": 4922,
      "comeb": 4923,
      "newcastle": 4924,
      "##lands": 4925,
      "bigley": 4926,
      "guerr": 4927,
      "refer": 4928,
      "update1": 4929,
      "drops": 4930,
      "activities": 4931,
      "premiers": 4932,
      "database": 4933,
      "prelimin": 4934,
      "phelps": 4935,
      "ble": 4936,
      "jaz": 4937,
      "lows": 4938,
      "rig": 4939,
      "anth": 4940,
      "blu": 4941,
      "liby": 4942,
      "tries": 4943,
      "founder": 4944,
      "limited": 4945,
      "crown": 4946,
      "capacity": 4947,
      "bomber": 4948,
      "wis": 4949,
      "wave": 4950,
      "##ction": 4951,
      "##0s": 4952,
      "meg": 4953,
      "throw": 4954,
      "solution": 4955,
      "##fielder": 4956,
      "mp3": 4957,
      "turkish": 4958,
      "jon": 4959,
      "kod": 4960,
      "##ias": 4961,
      "rein": 4962,
      "##ription": 4963,
      "phill": 4964,
      "supporters": 4965,
      "subst": 4966,
      "follow": 4967,
      "failure": 4968,
      "love": 4969,
      "islamabad": 4970,
      "rescue": 4971,
      "76": 4972,
      "800": 4973,
      "mir": 4974,
      "pist": 4975,
      "stan": 4976,
      "placed": 4977,
      "doing": 4978,
      "heading": 4979,
      "rebounds": 4980,
      "##enna": 4981,
      "lawmakers": 4982,
      "labour": 4983,
      "leadership": 4984,
      "outsour": 4985,
      "allegedly": 4986,
      "rapid": 4987,
      "vehicle": 4988,
      "carlos": 4989,
      "ii": 4990,
      "rather": 4991,
      "##edia": 4992,
      "spend": 4993,
      "lewis": 4994,
      "attention": 4995,
      "drives": 4996,
      "voip": 4997,
      "revolution": 4998,
      "choice": 4999,
      "comeback": 5000,
      "pi": 5001,
      "##rick": 5002,
      "##hib": 5003,
      "crimes": 5004,
      "gener": 5005,
      "entered": 5006,
      "nationwide": 5007,
      "sentenced": 5008,
      "gord": 5009,
      "ziff": 5010,
      "##ique": 5011,
      "##lins": 5012,
      "##nd": 5013,
      "##za": 5014,
      "##iners": 5015,
      "##ilar": 5016,
      "slide": 5017,
      "batter": 5018,
      "matches": 5019,
      "##anne": 5020,
      "packers": 5021,
      "graph": 5022,
      "pushed": 5023,
      "venezuela": 5024,
      "bh": 5025,
      "jagu": 5026,
      "##ao": 5027,
      "##uses": 5028,
      "##acked": 5029,
      "county": 5030,
      "semi": 5031,
      "restruct": 5032,
      "dial": 5033,
      "##point": 5034,
      "##urch": 5035,
      "motion": 5036,
      "poised": 5037,
      "qualif": 5038,
      "describ": 5039,
      "website": 5040,
      "doping": 5041,
      "rick": 5042,
      "##au": 5043,
      "##ination": 5044,
      "##isting": 5045,
      "exam": 5046,
      "aband": 5047,
      "officers": 5048,
      "##ibly": 5049,
      "demonstr": 5050,
      "begun": 5051,
      "belg": 5052,
      "fields": 5053,
      "altern": 5054,
      "gymn": 5055,
      "05": 5056,
      "##olm": 5057,
      "##ersey": 5058,
      "repe": 5059,
      "individ": 5060,
      "appoin": 5061,
      "##ogn": 5062,
      "golden": 5063,
      "radical": 5064,
      "##ikely": 5065,
      "promised": 5066,
      "unlikely": 5067,
      "##aug": 5068,
      "##apse": 5069,
      "surged": 5070,
      "preview": 5071,
      "motorola": 5072,
      "kmart": 5073,
      "inquiry": 5074,
      "##rysler": 5075,
      "dog": 5076,
      "##rol": 5077,
      "recomm": 5078,
      "##aves": 5079,
      "liqu": 5080,
      "fees": 5081,
      "continuing": 5082,
      "clinch": 5083,
      "immediately": 5084,
      "52": 5085,
      "bul": 5086,
      "##of": 5087,
      "##pp": 5088,
      "##etary": 5089,
      "##aceut": 5090,
      "mayor": 5091,
      "planes": 5092,
      "sues": 5093,
      "joe": 5094,
      "morgan": 5095,
      "investigating": 5096,
      "photos": 5097,
      "admitted": 5098,
      "ottawa": 5099,
      "langu": 5100,
      "zar": 5101,
      "##rd": 5102,
      "##oring": 5103,
      "sued": 5104,
      "driven": 5105,
      "similar": 5106,
      "renewed": 5107,
      "bench": 5108,
      "uef": 5109,
      "##hard": 5110,
      "##umn": 5111,
      "predict": 5112,
      "housing": 5113,
      "premiership": 5114,
      "uefa": 5115,
      "46": 5116,
      "##oning": 5117,
      "franch": 5118,
      "impress": 5119,
      "protocol": 5120,
      "organiz": 5121,
      "feature": 5122,
      "separate": 5123,
      "disappointing": 5124,
      "advantage": 5125,
      "hang": 5126,
      "lives": 5127,
      "pf": 5128,
      "self": 5129,
      "##aur": 5130,
      "##orth": 5131,
      "##rough": 5132,
      "alive": 5133,
      "words": 5134,
      "contrib": 5135,
      "infow": 5136,
      "owned": 5137,
      "schools": 5138,
      "magn": 5139,
      "situation": 5140,
      "nobel": 5141,
      "split": 5142,
      "ens": 5143,
      "overnight": 5144,
      "deputy": 5145,
      "maintain": 5146,
      "grab": 5147,
      "explosives": 5148,
      "tackle": 5149,
      "tend": 5150,
      "##cape": 5151,
      "##sis": 5152,
      "##aining": 5153,
      "declined": 5154,
      "halo": 5155,
      "email": 5156,
      "ranking": 5157,
      "shrine": 5158,
      "encoura": 5159,
      "##racts": 5160,
      "anticipated": 5161,
      "jr": 5162,
      "mcl": 5163,
      "sides": 5164,
      "##omo": 5165,
      "asks": 5166,
      "##osen": 5167,
      "newly": 5168,
      "lee": 5169,
      "usa": 5170,
      "buff": 5171,
      "medic": 5172,
      "250": 5173,
      "greater": 5174,
      "resigned": 5175,
      "machine": 5176,
      "increasingly": 5177,
      "ful": 5178,
      "##yad": 5179,
      "##hood": 5180,
      "##oth": 5181,
      "##ivity": 5182,
      "weight": 5183,
      "soaring": 5184,
      "joins": 5185,
      "remaining": 5186,
      "err": 5187,
      "egyptian": 5188,
      "malaysia": 5189,
      "preliminary": 5190,
      "au": 5191,
      "ign": 5192,
      "##aver": 5193,
      "##asion": 5194,
      "prim": 5195,
      "alert": 5196,
      "##abor": 5197,
      "adobe": 5198,
      "stret": 5199,
      "centre": 5200,
      "violent": 5201,
      "pistons": 5202,
      "66": 5203,
      "sor": 5204,
      "##world": 5205,
      "forb": 5206,
      "recogn": 5207,
      "trig": 5208,
      "parent": 5209,
      "viet": 5210,
      "acquired": 5211,
      "athletics": 5212,
      "destroy": 5213,
      "carter": 5214,
      "path": 5215,
      "porn": 5216,
      "sears": 5217,
      "##olic": 5218,
      "worker": 5219,
      "wayne": 5220,
      "deadl": 5221,
      "caught": 5222,
      "##attled": 5223,
      "mountain": 5224,
      "widely": 5225,
      "lawyer": 5226,
      "gymnast": 5227,
      "infoworld": 5228,
      "sidel": 5229,
      "##ois": 5230,
      "##oned": 5231,
      "spons": 5232,
      "hass": 5233,
      "interf": 5234,
      "abduc": 5235,
      "els": 5236,
      "##assi": 5237,
      "defend": 5238,
      "##airo": 5239,
      "threatening": 5240,
      "lineup": 5241,
      "flying": 5242,
      "vendors": 5243,
      "challenges": 5244,
      "fal": 5245,
      "jersey": 5246,
      "##asc": 5247,
      "governments": 5248,
      "recording": 5249,
      "launching": 5250,
      "edwards": 5251,
      "150": 5252,
      "traditional": 5253,
      "myan": 5254,
      "authority": 5255,
      "miller": 5256,
      "separat": 5257,
      "criticism": 5258,
      "uncertain": 5259,
      "99": 5260,
      "gap": 5261,
      "ori": 5262,
      "##bre": 5263,
      "revers": 5264,
      "chances": 5265,
      "##uggle": 5266,
      "else": 5267,
      "technical": 5268,
      "grid": 5269,
      "iranian": 5270,
      "songs": 5271,
      "67": 5272,
      "##wl": 5273,
      "##aters": 5274,
      "##oto": 5275,
      "##umping": 5276,
      "phys": 5277,
      "means": 5278,
      "guid": 5279,
      "peacekeep": 5280,
      "scientific": 5281,
      "succeed": 5282,
      "waiting": 5283,
      "vehicles": 5284,
      "ferg": 5285,
      "pharmaceut": 5286,
      "myanmar": 5287,
      "fcc": 5288,
      "##orse": 5289,
      "professional": 5290,
      "infring": 5291,
      "barcel": 5292,
      "threatens": 5293,
      "##minent": 5294,
      "respond": 5295,
      "messaging": 5296,
      "status": 5297,
      "refugee": 5298,
      "steady": 5299,
      "construction": 5300,
      "chechen": 5301,
      "curt": 5302,
      "wear": 5303,
      "apart": 5304,
      "overall": 5305,
      "attract": 5306,
      "officially": 5307,
      "attacked": 5308,
      "idea": 5309,
      "compete": 5310,
      "snow": 5311,
      "hunt": 5312,
      "friends": 5313,
      "birth": 5314,
      "jewish": 5315,
      "restructuring": 5316,
      "kim": 5317,
      "page": 5318,
      "##ril": 5319,
      "##mine": 5320,
      "##ining": 5321,
      "##etic": 5322,
      "cann": 5323,
      "patients": 5324,
      "evening": 5325,
      "condem": 5326,
      "welcom": 5327,
      "occup": 5328,
      "ax": 5329,
      "gary": 5330,
      "rat": 5331,
      "sue": 5332,
      "inch": 5333,
      "##station": 5334,
      "##lement": 5335,
      "units": 5336,
      "seized": 5337,
      "heav": 5338,
      "reporting": 5339,
      "sharap": 5340,
      "##phere": 5341,
      "jobless": 5342,
      "banned": 5343,
      "illin": 5344,
      "channel": 5345,
      "kodak": 5346,
      "gall": 5347,
      "mand": 5348,
      "##sters": 5349,
      "enj": 5350,
      "bright": 5351,
      "##argo": 5352,
      "##berry": 5353,
      "mind": 5354,
      "studios": 5355,
      "passenger": 5356,
      "instr": 5357,
      "brian": 5358,
      "vendor": 5359,
      "kobe": 5360,
      "nick": 5361,
      "rw": 5362,
      "##vez": 5363,
      "unless": 5364,
      "##umble": 5365,
      "annivers": 5366,
      "suspect": 5367,
      "towards": 5368,
      "dangerous": 5369,
      "vietnam": 5370,
      "sharapova": 5371,
      "37": 5372,
      "82": 5373,
      "vowed": 5374,
      "##reg": 5375,
      "bids": 5376,
      "claiming": 5377,
      "reaching": 5378,
      "larry": 5379,
      "spammers": 5380,
      "shipping": 5381,
      "solaris": 5382,
      "lebanon": 5383,
      "zarq": 5384,
      "anniversary": 5385,
      "born": 5386,
      "fam": 5387,
      "gate": 5388,
      "navy": 5389,
      "user": 5390,
      "agassi": 5391,
      "##ookup": 5392,
      "partic": 5393,
      "winds": 5394,
      "walt": 5395,
      "events": 5396,
      "multi": 5397,
      "captured": 5398,
      "steroid": 5399,
      "hackers": 5400,
      "barcelona": 5401,
      "ol": 5402,
      "vows": 5403,
      "##die": 5404,
      "spitzer": 5405,
      "clar": 5406,
      "allowing": 5407,
      "##issions": 5408,
      "vienna": 5409,
      "developers": 5410,
      "streets": 5411,
      "mcc": 5412,
      "playoffs": 5413,
      "achie": 5414,
      "resources": 5415,
      "bos": 5416,
      "rut": 5417,
      "##buster": 5418,
      "##hman": 5419,
      "marines": 5420,
      "##antec": 5421,
      "contest": 5422,
      "corner": 5423,
      "assemb": 5424,
      "convicted": 5425,
      "lifted": 5426,
      "symantec": 5427,
      "tempor": 5428,
      "zarqawi": 5429,
      "cry": 5430,
      "fit": 5431,
      "fda": 5432,
      "hike": 5433,
      "lux": 5434,
      "##otel": 5435,
      "shots": 5436,
      "##apers": 5437,
      "bloom": 5438,
      "militia": 5439,
      "trail": 5440,
      "jeanne": 5441,
      "democrats": 5442,
      "collapse": 5443,
      "blockbuster": 5444,
      "legislation": 5445,
      "jacques": 5446,
      "##html": 5447,
      "cerem": 5448,
      "gordon": 5449,
      "ferr": 5450,
      "hus": 5451,
      "jhtml": 5452,
      "##pped": 5453,
      "##fire": 5454,
      "stall": 5455,
      "chir": 5456,
      "shan": 5457,
      "vijay": 5458,
      "titans": 5459,
      "##type": 5460,
      "astronom": 5461,
      "stern": 5462,
      "briefly": 5463,
      "cowb": 5464,
      "rallied": 5465,
      "hu": 5466,
      "matt": 5467,
      "##py": 5468,
      "##igious": 5469,
      "##estone": 5470,
      "##ipped": 5471,
      "mariners": 5472,
      "longhorn": 5473,
      "defeated": 5474,
      "bbc": 5475,
      "qcat": 5476,
      "qtype": 5477,
      "##iary": 5478,
      "##enko": 5479,
      "##quotel": 5480,
      "adm": 5481,
      "contracts": 5482,
      "struggle": 5483,
      "infotype": 5484,
      "deleg": 5485,
      "networking": 5486,
      "providers": 5487,
      "edged": 5488,
      "entire": 5489,
      "financequotel": 5490,
      "financequotelookup": 5491,
      "##usive": 5492,
      "##ipe": 5493,
      "frust": 5494,
      "surround": 5495,
      "faced": 5496,
      "mosque": 5497,
      "creating": 5498,
      "ancient": 5499,
      "pfizer": 5500,
      "ru": 5501,
      "signing": 5502,
      "##inos": 5503,
      "##arily": 5504,
      "##icious": 5505,
      "editor": 5506,
      "improving": 5507,
      "denies": 5508,
      "jailed": 5509,
      "circuit": 5510,
      "seeded": 5511,
      "oce": 5512,
      "torn": 5513,
      "##gu": 5514,
      "forum": 5515,
      "injuries": 5516,
      "reaches": 5517,
      "everything": 5518,
      "gaming": 5519,
      "measures": 5520,
      "vaccine": 5521,
      "gal": 5522,
      "tab": 5523,
      "anton": 5524,
      "onto": 5525,
      "##urning": 5526,
      "arctic": 5527,
      "##ords": 5528,
      "canc": 5529,
      "driving": 5530,
      "summary": 5531,
      "gard": 5532,
      "nca": 5533,
      "pione": 5534,
      "##gas": 5535,
      "##feld": 5536,
      "##ective": 5537,
      "cru": 5538,
      "crime": 5539,
      "corr": 5540,
      "corruption": 5541,
      "##ibur": 5542,
      "traded": 5543,
      "politic": 5544,
      "robot": 5545,
      "promises": 5546,
      "##ette": 5547,
      "brazilian": 5548,
      "viruses": 5549,
      "identity": 5550,
      "friendly": 5551,
      "69": 5552,
      "##agon": 5553,
      "##ello": 5554,
      "ability": 5555,
      "elected": 5556,
      "hitting": 5557,
      "showdown": 5558,
      "refused": 5559,
      "loses": 5560,
      "taxes": 5561,
      "condition": 5562,
      "expressed": 5563,
      "hallibur": 5564,
      "thomas": 5565,
      "education": 5566,
      "prepare": 5567,
      "halliburton": 5568,
      "04": 5569,
      "dc": 5570,
      "##oe": 5571,
      "##aked": 5572,
      "quite": 5573,
      "pervez": 5574,
      "extends": 5575,
      "evac": 5576,
      "messages": 5577,
      "doubled": 5578,
      "pictures": 5579,
      "semifinals": 5580,
      "genesis": 5581,
      "forbes": 5582,
      "father": 5583,
      "##ata": 5584,
      "bea": 5585,
      "##ume": 5586,
      "desert": 5587,
      "refl": 5588,
      "critics": 5589,
      "foods": 5590,
      "factory": 5591,
      "shoppers": 5592,
      "browns": 5593,
      "bitter": 5594,
      "ult": 5595,
      "bottom": 5596,
      "eased": 5597,
      "pret": 5598,
      "offset": 5599,
      "##ordin": 5600,
      "processors": 5601,
      "analysis": 5602,
      "combat": 5603,
      "picked": 5604,
      "archit": 5605,
      "happy": 5606,
      "dramatic": 5607,
      "ncaa": 5608,
      "diam": 5609,
      "##oen": 5610,
      "##haps": 5611,
      "reject": 5612,
      "##leans": 5613,
      "aggress": 5614,
      "orleans": 5615,
      "trick": 5616,
      "paying": 5617,
      "failing": 5618,
      "considered": 5619,
      "square": 5620,
      "involving": 5621,
      "benefit": 5622,
      "62": 5623,
      "sugg": 5624,
      "tied": 5625,
      "##ales": 5626,
      "prove": 5627,
      "fires": 5628,
      "export": 5629,
      "internal": 5630,
      "postseason": 5631,
      "gren": 5632,
      "brawl": 5633,
      "powers": 5634,
      "diplomats": 5635,
      "drove": 5636,
      "ankle": 5637,
      "columbia": 5638,
      "jays": 5639,
      "norm": 5640,
      "##zen": 5641,
      "##icals": 5642,
      "prec": 5643,
      "##iana": 5644,
      "worry": 5645,
      "repair": 5646,
      "soy": 5647,
      "cease": 5648,
      "emerged": 5649,
      "favour": 5650,
      "practices": 5651,
      "henman": 5652,
      "lapt": 5653,
      "##wich": 5654,
      "thai": 5655,
      "church": 5656,
      "congr": 5657,
      "april": 5658,
      "pole": 5659,
      "seasons": 5660,
      "##elson": 5661,
      "##engers": 5662,
      "politics": 5663,
      "civilians": 5664,
      "manufacturer": 5665,
      "subscribers": 5666,
      "capsule": 5667,
      "trigger": 5668,
      "96": 5669,
      "aer": 5670,
      "buc": 5671,
      "pushing": 5672,
      "rou": 5673,
      "##ashing": 5674,
      "perhaps": 5675,
      "relie": 5676,
      "boom": 5677,
      "possibly": 5678,
      "blackberry": 5679,
      "roman": 5680,
      "dismissed": 5681,
      "surprising": 5682,
      "hamp": 5683,
      "nv": 5684,
      "thin": 5685,
      "##under": 5686,
      "expands": 5687,
      "recr": 5688,
      "present": 5689,
      "extrem": 5690,
      "##rupted": 5691,
      "squad": 5692,
      "figure": 5693,
      "dozen": 5694,
      "garc": 5695,
      "cooperation": 5696,
      "##ritis": 5697,
      "graphics": 5698,
      "##iller": 5699,
      "##ivo": 5700,
      "accident": 5701,
      "sudden": 5702,
      "organis": 5703,
      "bobby": 5704,
      "siege": 5705,
      "citizens": 5706,
      "spaceshipone": 5707,
      "chirac": 5708,
      "either": 5709,
      "p2": 5710,
      "##itude": 5711,
      "bigger": 5712,
      "trium": 5713,
      "brain": 5714,
      "vegas": 5715,
      "kyoto": 5716,
      "fighters": 5717,
      "outsourcing": 5718,
      "diamond": 5719,
      "##hen": 5720,
      "##ini": 5721,
      "ongoing": 5722,
      "serena": 5723,
      "remember": 5724,
      "managed": 5725,
      "dominated": 5726,
      "arthritis": 5727,
      "tap": 5728,
      "##time": 5729,
      "##room": 5730,
      "alital": 5731,
      "announcing": 5732,
      "suspension": 5733,
      "##awks": 5734,
      "everyone": 5735,
      "journalists": 5736,
      "kofi": 5737,
      "determin": 5738,
      "colombia": 5739,
      "astronauts": 5740,
      "strategic": 5741,
      "franchise": 5742,
      "cowboys": 5743,
      "triumph": 5744,
      "alitalia": 5745,
      "ho": 5746,
      "tank": 5747,
      "##essed": 5748,
      "##emen": 5749,
      "weaker": 5750,
      "backing": 5751,
      "explo": 5752,
      "passengers": 5753,
      "modest": 5754,
      "qaida": 5755,
      "resolve": 5756,
      "cz": 5757,
      "lu": 5758,
      "mol": 5759,
      "##ui": 5760,
      "##rier": 5761,
      "particip": 5762,
      "door": 5763,
      "throughout": 5764,
      "drivers": 5765,
      "indians": 5766,
      "resignation": 5767,
      "licens": 5768,
      "toyota": 5769,
      "language": 5770,
      "p2p": 5771,
      "78": 5772,
      "hill": 5773,
      "kenn": 5774,
      "##work": 5775,
      "##etts": 5776,
      "ash": 5777,
      "spark": 5778,
      "expert": 5779,
      "serve": 5780,
      "orbit": 5781,
      "playstation": 5782,
      "brother": 5783,
      "swim": 5784,
      "vik": 5785,
      "imm": 5786,
      "approves": 5787,
      "ryan": 5788,
      "expanding": 5789,
      "illinois": 5790,
      "##erc": 5791,
      "##usetts": 5792,
      "compens": 5793,
      "resist": 5794,
      "brings": 5795,
      "##achusetts": 5796,
      "##phone": 5797,
      "remo": 5798,
      "nether": 5799,
      "massachusetts": 5800,
      "receive": 5801,
      "lyn": 5802,
      "overseas": 5803,
      "opponents": 5804,
      "84": 5805,
      "fash": 5806,
      "kl": 5807,
      "##eason": 5808,
      "marlins": 5809,
      "aren": 5810,
      "trend": 5811,
      "bridge": 5812,
      "preseason": 5813,
      "##ghai": 5814,
      "carib": 5815,
      "injuring": 5816,
      "joining": 5817,
      "scientist": 5818,
      "visiting": 5819,
      "cleared": 5820,
      "downloads": 5821,
      "lockout": 5822,
      "espn": 5823,
      "libya": 5824,
      "shanghai": 5825,
      "86": 5826,
      "dur": 5827,
      "gad": 5828,
      "mother": 5829,
      "nap": 5830,
      "pct": 5831,
      "samp": 5832,
      "##yn": 5833,
      "sap": 5834,
      "##central": 5835,
      "mah": 5836,
      "feed": 5837,
      "holes": 5838,
      "additional": 5839,
      "anyone": 5840,
      "discount": 5841,
      "successor": 5842,
      "mosul": 5843,
      "landmark": 5844,
      "resigns": 5845,
      "tells": 5846,
      "measure": 5847,
      "floods": 5848,
      "obser": 5849,
      "netherlands": 5850,
      "3q": 5851,
      "92": 5852,
      "lake": 5853,
      "rf": 5854,
      "##pass": 5855,
      "##ying": 5856,
      "##itory": 5857,
      "##ager": 5858,
      "peru": 5859,
      "phishing": 5860,
      "insisted": 5861,
      "197": 5862,
      "foundation": 5863,
      "conclud": 5864,
      "collabor": 5865,
      "connection": 5866,
      "gained": 5867,
      "inventories": 5868,
      "maryland": 5869,
      "56": 5870,
      "aside": 5871,
      "highly": 5872,
      "meets": 5873,
      "column": 5874,
      "updates": 5875,
      "##ennan": 5876,
      "divid": 5877,
      "hotels": 5878,
      "pirates": 5879,
      "cameras": 5880,
      "fergus": 5881,
      "antonio": 5882,
      "fate": 5883,
      "tall": 5884,
      "##had": 5885,
      "##ature": 5886,
      "##omes": 5887,
      "lehman": 5888,
      "##endum": 5889,
      "orland": 5890,
      "peter": 5891,
      "mining": 5892,
      "warnings": 5893,
      "string": 5894,
      "postpon": 5895,
      "freeze": 5896,
      "heard": 5897,
      "communist": 5898,
      "transfer": 5899,
      "maccentral": 5900,
      "treasuries": 5901,
      "coca": 5902,
      "orlando": 5903,
      "57": 5904,
      "##mc": 5905,
      "##gs": 5906,
      "brad": 5907,
      "cancel": 5908,
      "sunni": 5909,
      "slugg": 5910,
      "##azer": 5911,
      "talking": 5912,
      "predicted": 5913,
      "controversy": 5914,
      "constitution": 5915,
      "suggests": 5916,
      "caribbean": 5917,
      "cart": 5918,
      "nic": 5919,
      "sac": 5920,
      "##rig": 5921,
      "##iel": 5922,
      "##te": 5923,
      "##side": 5924,
      "##gb": 5925,
      "##using": 5926,
      "##oster": 5927,
      "accounts": 5928,
      "telesc": 5929,
      "protests": 5930,
      "universal": 5931,
      "arabia": 5932,
      "pipeline": 5933,
      "referendum": 5934,
      "drew": 5935,
      "fro": 5936,
      "##fort": 5937,
      "##roll": 5938,
      "chap": 5939,
      "enab": 5940,
      "agents": 5941,
      "monetary": 5942,
      "overha": 5943,
      "serb": 5944,
      "fined": 5945,
      "brands": 5946,
      "returning": 5947,
      "regard": 5948,
      "medals": 5949,
      "headqu": 5950,
      "##ooth": 5951,
      "anything": 5952,
      "engineers": 5953,
      "quality": 5954,
      "reforms": 5955,
      "breat": 5956,
      "bert": 5957,
      "cases": 5958,
      "##fall": 5959,
      "##star": 5960,
      "whe": 5961,
      "unr": 5962,
      "consp": 5963,
      "gasol": 5964,
      "introduce": 5965,
      "pilot": 5966,
      "screens": 5967,
      "assistant": 5968,
      "mclennan": 5969,
      "enjoy": 5970,
      "cult": 5971,
      "##anes": 5972,
      "##ili": 5973,
      "produce": 5974,
      "##iant": 5975,
      "offices": 5976,
      "abd": 5977,
      "blamed": 5978,
      "busch": 5979,
      "presence": 5980,
      "wars": 5981,
      "infra": 5982,
      "schum": 5983,
      "knew": 5984,
      "provided": 5985,
      "fellow": 5986,
      "equity": 5987,
      "embattled": 5988,
      "stopped": 5989,
      "insurgent": 5990,
      "affair": 5991,
      "lifts": 5992,
      "hollinger": 5993,
      "assembly": 5994,
      "vikings": 5995,
      "85": 5996,
      "eri": 5997,
      "ecl": 5998,
      "ross": 5999,
      "##aire": 6000,
      "plants": 6001,
      "boosts": 6002,
      "entry": 6003,
      "palmone": 6004,
      "answer": 6005,
      "bronze": 6006,
      "cheney": 6007,
      "projects": 6008,
      "ceremony": 6009,
      "ferguson": 6010,
      "sust": 6011,
      "##dy": 6012,
      "##dles": 6013,
      "##icts": 6014,
      "blame": 6015,
      "maures": 6016,
      "coaches": 6017,
      "watched": 6018,
      "explosions": 6019,
      "muslims": 6020,
      "suffering": 6021,
      "harmony": 6022,
      "ace": 6023,
      "len": 6024,
      "pounds": 6025,
      "sr": 6026,
      "##erly": 6027,
      "##esters": 6028,
      "knicks": 6029,
      "boxing": 6030,
      "apparent": 6031,
      "fashion": 6032,
      "mauresmo": 6033,
      "dna": 6034,
      "rug": 6035,
      "rays": 6036,
      "tun": 6037,
      "##bel": 6038,
      "##orp": 6039,
      "beef": 6040,
      "acad": 6041,
      "amount": 6042,
      "marri": 6043,
      "however": 6044,
      "models": 6045,
      "sprin": 6046,
      "license": 6047,
      "pledged": 6048,
      "surface": 6049,
      "ousted": 6050,
      "helicopter": 6051,
      "architect": 6052,
      "bon": 6053,
      "var": 6054,
      "xbox": 6055,
      "##mens": 6056,
      "##aped": 6057,
      "true": 6058,
      "austria": 6059,
      "larger": 6060,
      "##avez": 6061,
      "competitive": 6062,
      "meth": 6063,
      "climbed": 6064,
      "appointed": 6065,
      "headquarters": 6066,
      "hor": 6067,
      "kaza": 6068,
      "rome": 6069,
      "table": 6070,
      "##bar": 6071,
      "##qt": 6072,
      "comment": 6073,
      "compon": 6074,
      "##elling": 6075,
      "clot": 6076,
      "deser": 6077,
      "payments": 6078,
      "approve": 6079,
      "##views": 6080,
      "closely": 6081,
      "dark": 6082,
      "docomo": 6083,
      "sweden": 6084,
      "manufacturers": 6085,
      "hassan": 6086,
      "infrastr": 6087,
      "kazaa": 6088,
      "72": 6089,
      "rams": 6090,
      "task": 6091,
      "##lor": 6092,
      "##uan": 6093,
      "tob": 6094,
      "chavez": 6095,
      "unw": 6096,
      "uses": 6097,
      "intens": 6098,
      "allies": 6099,
      "meter": 6100,
      "stronghold": 6101,
      "##cliff": 6102,
      "ballot": 6103,
      "easier": 6104,
      "carried": 6105,
      "feared": 6106,
      "tsun": 6107,
      "qualifier": 6108,
      "cannot": 6109,
      "74": 6110,
      "77": 6111,
      "rail": 6112,
      "##pm": 6113,
      "excl": 6114,
      "##antas": 6115,
      "adrian": 6116,
      "worlds": 6117,
      "parents": 6118,
      "cola": 6119,
      "targeting": 6120,
      "belt": 6121,
      "##loyment": 6122,
      "solutions": 6123,
      "distance": 6124,
      "sentiment": 6125,
      "letter": 6126,
      "prepares": 6127,
      "magic": 6128,
      "casino": 6129,
      "charlott": 6130,
      "reduced": 6131,
      "innov": 6132,
      "described": 6133,
      "fought": 6134,
      "pav": 6135,
      "tar": 6136,
      "wto": 6137,
      "##can": 6138,
      "##met": 6139,
      "##ground": 6140,
      "inaug": 6141,
      "##icated": 6142,
      "proceed": 6143,
      "##emens": 6144,
      "##enda": 6145,
      "trim": 6146,
      "trump": 6147,
      "scale": 6148,
      "slash": 6149,
      "produced": 6150,
      "rovers": 6151,
      "risks": 6152,
      "stepped": 6153,
      "fails": 6154,
      "pitched": 6155,
      "require": 6156,
      "celtic": 6157,
      "alternative": 6158,
      "##cliffe": 6159,
      "lets": 6160,
      "loy": 6161,
      "woes": 6162,
      "##bl": 6163,
      "stick": 6164,
      "##artner": 6165,
      "diss": 6166,
      "##ovo": 6167,
      "harry": 6168,
      "democrat": 6169,
      "clemens": 6170,
      "seemed": 6171,
      "potentially": 6172,
      "raptors": 6173,
      "siemens": 6174,
      "beslan": 6175,
      "88": 6176,
      "roo": 6177,
      "wiz": 6178,
      "##bod": 6179,
      "deuts": 6180,
      "exhib": 6181,
      "usc": 6182,
      "worried": 6183,
      "client": 6184,
      "retired": 6185,
      "backup": 6186,
      "suite": 6187,
      "powered": 6188,
      "sentence": 6189,
      "focused": 6190,
      "pleaded": 6191,
      "emerging": 6192,
      "expanded": 6193,
      "heavyweight": 6194,
      "penalty": 6195,
      "neighbor": 6196,
      "infrastructure": 6197,
      "ft": 6198,
      "hond": 6199,
      "tape": 6200,
      "##tering": 6201,
      "##usion": 6202,
      "exit": 6203,
      "complex": 6204,
      "euros": 6205,
      "capable": 6206,
      "breed": 6207,
      "meetings": 6208,
      "shoulder": 6209,
      "osama": 6210,
      "raiders": 6211,
      "effective": 6212,
      "successfully": 6213,
      "crackdown": 6214,
      "brokerage": 6215,
      "spirit": 6216,
      "stretch": 6217,
      "##qtada": 6218,
      "hired": 6219,
      "yield": 6220,
      "##roc": 6221,
      "##achi": 6222,
      "disrupt": 6223,
      "serving": 6224,
      "implement": 6225,
      "palace": 6226,
      "israelis": 6227,
      "humans": 6228,
      "valley": 6229,
      "shipments": 6230,
      "slipped": 6231,
      "liquid": 6232,
      "bt": 6233,
      "dust": 6234,
      "gartner": 6235,
      "horn": 6236,
      "ox": 6237,
      "##nel": 6238,
      "cha": 6239,
      "spurs": 6240,
      "##anson": 6241,
      "orange": 6242,
      "peters": 6243,
      "invasion": 6244,
      "couldn": 6245,
      "imports": 6246,
      "glazer": 6247,
      "largely": 6248,
      "update2": 6249,
      "aviation": 6250,
      "financing": 6251,
      "investigators": 6252,
      "positions": 6253,
      "capture": 6254,
      "limit": 6255,
      "##mohan": 6256,
      "causing": 6257,
      "relationship": 6258,
      "institute": 6259,
      "ocean": 6260,
      "caval": 6261,
      "fem": 6262,
      "gd": 6263,
      "##xim": 6264,
      "adj": 6265,
      "helens": 6266,
      "maybe": 6267,
      "mostly": 6268,
      "lowest": 6269,
      "families": 6270,
      "experim": 6271,
      "cambod": 6272,
      "clinton": 6273,
      "distribution": 6274,
      "publisher": 6275,
      "multiple": 6276,
      "overhaul": 6277,
      "hamil": 6278,
      "lob": 6279,
      "mall": 6280,
      "tag": 6281,
      "spur": 6282,
      "opin": 6283,
      "orb": 6284,
      "accel": 6285,
      "industries": 6286,
      "providing": 6287,
      "charley": 6288,
      "funding": 6289,
      "philips": 6290,
      "drag": 6291,
      "volunt": 6292,
      "delivered": 6293,
      "responsible": 6294,
      "tropical": 6295,
      "flaws": 6296,
      "auss": 6297,
      "stands": 6298,
      "phoen": 6299,
      "targeted": 6300,
      "ticket": 6301,
      "imac": 6302,
      "mcn": 6303,
      "greatest": 6304,
      "dividend": 6305,
      "schumacher": 6306,
      "deutsche": 6307,
      "hamilton": 6308,
      "phoenix": 6309,
      "63": 6310,
      "ic": 6311,
      "ov": 6312,
      "##iber": 6313,
      "shad": 6314,
      "apolog": 6315,
      "seah": 6316,
      "disk": 6317,
      "manmohan": 6318,
      "offerings": 6319,
      "territory": 6320,
      "patents": 6321,
      "insurers": 6322,
      "programme": 6323,
      "memph": 6324,
      "pushes": 6325,
      "landing": 6326,
      "subsidiary": 6327,
      "##inho": 6328,
      "sluggish": 6329,
      "68": 6330,
      "dick": 6331,
      "tay": 6332,
      "##itas": 6333,
      "thatcher": 6334,
      "exact": 6335,
      "##icken": 6336,
      "busy": 6337,
      "commander": 6338,
      "advances": 6339,
      "movement": 6340,
      "writer": 6341,
      "homeland": 6342,
      "jean": 6343,
      "poison": 6344,
      "gamb": 6345,
      "couple": 6346,
      "reasons": 6347,
      "owen": 6348,
      "curb": 6349,
      "battles": 6350,
      "favorite": 6351,
      "pentagon": 6352,
      "##know": 6353,
      "tsunami": 6354,
      "charlotte": 6355,
      "seahawks": 6356,
      "memphis": 6357,
      "flex": 6358,
      "hugh": 6359,
      "##eera": 6360,
      "##mes": 6361,
      "##wom": 6362,
      "##illy": 6363,
      "whole": 6364,
      "ell": 6365,
      "swing": 6366,
      "writes": 6367,
      "versions": 6368,
      "possibility": 6369,
      "modern": 6370,
      "storms": 6371,
      "obtain": 6372,
      "arrives": 6373,
      "settles": 6374,
      "netscape": 6375,
      "infringement": 6376,
      "famous": 6377,
      "foss": 6378,
      "lun": 6379,
      "tan": 6380,
      "##burn": 6381,
      "##rison": 6382,
      "##net": 6383,
      "##web": 6384,
      "##stone": 6385,
      "acknow": 6386,
      "maria": 6387,
      "religious": 6388,
      "consol": 6389,
      "monthly": 6390,
      "guine": 6391,
      "##urred": 6392,
      "imf": 6393,
      "reality": 6394,
      "watching": 6395,
      "promise": 6396,
      "photograph": 6397,
      "islands": 6398,
      "representatives": 6399,
      "bund": 6400,
      "fen": 6401,
      "jos": 6402,
      "ratings": 6403,
      "vital": 6404,
      "wick": 6405,
      "##cott": 6406,
      "##hill": 6407,
      "##aste": 6408,
      "compared": 6409,
      "##abil": 6410,
      "##enson": 6411,
      "marks": 6412,
      "mini": 6413,
      "earned": 6414,
      "raf": 6415,
      "calm": 6416,
      "provides": 6417,
      "demanding": 6418,
      "160": 6419,
      "convoy": 6420,
      "henry": 6421,
      "rfid": 6422,
      "dh": 6423,
      "f1": 6424,
      "hiring": 6425,
      "viv": 6426,
      "##life": 6427,
      "##acco": 6428,
      "##amo": 6429,
      "agenda": 6430,
      "slowing": 6431,
      "engines": 6432,
      "##ront": 6433,
      "transact": 6434,
      "discovery": 6435,
      "suggested": 6436,
      "initiative": 6437,
      "anthony": 6438,
      "clothing": 6439,
      "loyal": 6440,
      "##woman": 6441,
      "acknowled": 6442,
      "guinea": 6443,
      "cs": 6444,
      "es": 6445,
      "eis": 6446,
      "lakers": 6447,
      "pin": 6448,
      "tail": 6449,
      "##ua": 6450,
      "##oum": 6451,
      "concess": 6452,
      "unpr": 6453,
      "unemp": 6454,
      "sab": 6455,
      "exerc": 6456,
      "branch": 6457,
      "laur": 6458,
      "##active": 6459,
      "doubles": 6460,
      "frequ": 6461,
      "hopeful": 6462,
      "rolls": 6463,
      "estimated": 6464,
      "illegally": 6465,
      "prosecutor": 6466,
      "fleet": 6467,
      "optimistic": 6468,
      "prospects": 6469,
      "celtics": 6470,
      "origin": 6471,
      "gateway": 6472,
      "gasoline": 6473,
      "eisner": 6474,
      "95": 6475,
      "fierce": 6476,
      "##uz": 6477,
      "##rah": 6478,
      "ally": 6479,
      "firing": 6480,
      "arena": 6481,
      "bln": 6482,
      "2007": 6483,
      "##ologists": 6484,
      "muse": 6485,
      "titles": 6486,
      "legend": 6487,
      "competitors": 6488,
      "experience": 6489,
      "republicans": 6490,
      "lycos": 6491,
      "shareholder": 6492,
      "tentative": 6493,
      "tobacco": 6494,
      "honda": 6495,
      "71": 6496,
      "##rill": 6497,
      "##nie": 6498,
      "##ulate": 6499,
      "conver": 6500,
      "alber": 6501,
      "marine": 6502,
      "ord": 6503,
      "sco": 6504,
      "crush": 6505,
      "2008": 6506,
      "##ancing": 6507,
      "10th": 6508,
      "payment": 6509,
      "concerned": 6510,
      "controlled": 6511,
      "ballmer": 6512,
      "withdra": 6513,
      "confirms": 6514,
      "envoy": 6515,
      "surviv": 6516,
      "sirius": 6517,
      "rums": 6518,
      "landsl": 6519,
      "petrole": 6520,
      "finger": 6521,
      "lc": 6522,
      "py": 6523,
      "##mission": 6524,
      "##arant": 6525,
      "##atively": 6526,
      "shake": 6527,
      "itanium": 6528,
      "##enders": 6529,
      "slump": 6530,
      "quarterf": 6531,
      "operators": 6532,
      "protesters": 6533,
      "cells": 6534,
      "tyco": 6535,
      "abbey": 6536,
      "mln": 6537,
      "separatist": 6538,
      "rumsfeld": 6539,
      "bed": 6540,
      "bug": 6541,
      "fool": 6542,
      "krem": 6543,
      "soph": 6544,
      "tivo": 6545,
      "##ded": 6546,
      "margar": 6547,
      "reporters": 6548,
      "contact": 6549,
      "supplier": 6550,
      "suspend": 6551,
      "arrests": 6552,
      "population": 6553,
      "plea": 6554,
      "felt": 6555,
      "individual": 6556,
      "wizards": 6557,
      "##outs": 6558,
      "##eced": 6559,
      "##olen": 6560,
      "##rif": 6561,
      "##antan": 6562,
      "defends": 6563,
      "consort": 6564,
      "##athan": 6565,
      "grad": 6566,
      "northwest": 6567,
      "effects": 6568,
      "subject": 6569,
      "formally": 6570,
      "radcliffe": 6571,
      "estate": 6572,
      "membership": 6573,
      "currently": 6574,
      "awards": 6575,
      "sweeping": 6576,
      "materials": 6577,
      "mcdon": 6578,
      "ensure": 6579,
      "particular": 6580,
      "astronomers": 6581,
      "czech": 6582,
      "petroleum": 6583,
      "kremlin": 6584,
      "margaret": 6585,
      "aide": 6586,
      "cath": 6587,
      "cbc": 6588,
      "##stein": 6589,
      "neal": 6590,
      "cong": 6591,
      "unh": 6592,
      "memor": 6593,
      "followed": 6594,
      "stephen": 6595,
      "firew": 6596,
      "##ikes": 6597,
      "regulator": 6598,
      "policies": 6599,
      "pleads": 6600,
      "utility": 6601,
      "bolster": 6602,
      "optimism": 6603,
      "du": 6604,
      "gor": 6605,
      "horse": 6606,
      "map": 6607,
      "punch": 6608,
      "##rated": 6609,
      "##lon": 6610,
      "##su": 6611,
      "##ecially": 6612,
      "manage": 6613,
      "marked": 6614,
      "justin": 6615,
      "detain": 6616,
      "cellular": 6617,
      "loan": 6618,
      "revenues": 6619,
      "document": 6620,
      "attempts": 6621,
      "rolled": 6622,
      "delivery": 6623,
      "handset": 6624,
      "chechn": 6625,
      "rushed": 6626,
      "gymnastics": 6627,
      "consortium": 6628,
      "bor": 6629,
      "bcs": 6630,
      "mg": 6631,
      "vision": 6632,
      "##oard": 6633,
      "##giving": 6634,
      "##arr": 6635,
      "andrew": 6636,
      "plenty": 6637,
      "##ipse": 6638,
      "haven": 6639,
      "scrap": 6640,
      "assess": 6641,
      "briton": 6642,
      "knows": 6643,
      "steam": 6644,
      "studio": 6645,
      "slowdown": 6646,
      "advertis": 6647,
      "casual": 6648,
      "especially": 6649,
      "munich": 6650,
      "kuwa": 6651,
      "wonder": 6652,
      "chechnya": 6653,
      "crop": 6654,
      "ie": 6655,
      "pock": 6656,
      "pool": 6657,
      "vast": 6658,
      "##ports": 6659,
      "##vic": 6660,
      "##enport": 6661,
      "##icle": 6662,
      "quake": 6663,
      "upbeat": 6664,
      "coff": 6665,
      "##etworks": 6666,
      "##anged": 6667,
      "trials": 6668,
      "hero": 6669,
      "merge": 6670,
      "davenport": 6671,
      "facility": 6672,
      "boosting": 6673,
      "regulatory": 6674,
      "privately": 6675,
      "struggles": 6676,
      "accepted": 6677,
      "philippine": 6678,
      "welcome": 6679,
      "organizations": 6680,
      "compensation": 6681,
      "cavaliers": 6682,
      "81": 6683,
      "aw": 6684,
      "bound": 6685,
      "gaz": 6686,
      "rape": 6687,
      "sized": 6688,
      "##oil": 6689,
      "##olves": 6690,
      "##utious": 6691,
      "##iab": 6692,
      "aboard": 6693,
      "becomes": 6694,
      "understand": 6695,
      "searching": 6696,
      "included": 6697,
      "fewer": 6698,
      "administr": 6699,
      "refugees": 6700,
      "swedish": 6701,
      "mystery": 6702,
      "jazeera": 6703,
      "eclipse": 6704,
      "unpreced": 6705,
      "unemployment": 6706,
      "unprecedented": 6707,
      "jama": 6708,
      "mu": 6709,
      "wire": 6710,
      "##rone": 6711,
      "##kar": 6712,
      "##alo": 6713,
      "anger": 6714,
      "comfort": 6715,
      "alb": 6716,
      "termin": 6717,
      "victor": 6718,
      "coaching": 6719,
      "formal": 6720,
      "standing": 6721,
      "visits": 6722,
      "harv": 6723,
      "cautious": 6724,
      "struggled": 6725,
      "biot": 6726,
      "broncos": 6727,
      "immediate": 6728,
      "abbas": 6729,
      "jaguar": 6730,
      "garcia": 6731,
      "telescope": 6732,
      "rugby": 6733,
      "picks": 6734,
      "tens": 6735,
      "##zard": 6736,
      "##ayed": 6737,
      "ata": 6738,
      "shak": 6739,
      "shown": 6740,
      "allen": 6741,
      "nears": 6742,
      "##inson": 6743,
      "everton": 6744,
      "write": 6745,
      "doubts": 6746,
      "reading": 6747,
      "awarded": 6748,
      "##aska": 6749,
      "accusing": 6750,
      "jay": 6751,
      "lp": 6752,
      "sense": 6753,
      "##pa": 6754,
      "##gate": 6755,
      "##vania": 6756,
      "##fol": 6757,
      "starter": 6758,
      "##through": 6759,
      "##aine": 6760,
      "##ectors": 6761,
      "##ifts": 6762,
      "amster": 6763,
      "crm": 6764,
      "producing": 6765,
      "feet": 6766,
      "battered": 6767,
      "passing": 6768,
      "veritas": 6769,
      "carriers": 6770,
      "birds": 6771,
      "destr": 6772,
      "escal": 6773,
      "pentium": 6774,
      "evacu": 6775,
      "licensing": 6776,
      "amsterdam": 6777,
      "lley": 6778,
      "mull": 6779,
      "rid": 6780,
      "rim": 6781,
      "tumb": 6782,
      "##ares": 6783,
      "##itarian": 6784,
      "##ache": 6785,
      "console": 6786,
      "doug": 6787,
      "evolution": 6788,
      "loans": 6789,
      "safin": 6790,
      "races": 6791,
      "responsibility": 6792,
      "committed": 6793,
      "simple": 6794,
      "lleyton": 6795,
      "89": 6796,
      "cd": 6797,
      "dal": 6798,
      "neck": 6799,
      "waters": 6800,
      "##uth": 6801,
      "##imp": 6802,
      "hasn": 6803,
      "fled": 6804,
      "setback": 6805,
      "producers": 6806,
      "depot": 6807,
      "##inking": 6808,
      "breakthrough": 6809,
      "engineering": 6810,
      "##ippi": 6811,
      "handsets": 6812,
      "trafford": 6813,
      "unexpectedly": 6814,
      "postponed": 6815,
      "chapter": 6816,
      "female": 6817,
      "ailing": 6818,
      "mick": 6819,
      "rough": 6820,
      "##iga": 6821,
      "ite": 6822,
      "buzz": 6823,
      "gene": 6824,
      "guantan": 6825,
      "emc": 6826,
      "threaten": 6827,
      "strained": 6828,
      "employee": 6829,
      "pitching": 6830,
      "multim": 6831,
      "appearance": 6832,
      "momentum": 6833,
      "peacekeepers": 6834,
      "guantanamo": 6835,
      "iow": 6836,
      "rh": 6837,
      "sven": 6838,
      "toys": 6839,
      "enforce": 6840,
      "resort": 6841,
      "caution": 6842,
      "thanksgiving": 6843,
      "cairo": 6844,
      "dw": 6845,
      "et": 6846,
      "hij": 6847,
      "sag": 6848,
      "ug": 6849,
      "ont": 6850,
      "stations": 6851,
      "##vement": 6852,
      "##unk": 6853,
      "princ": 6854,
      "clients": 6855,
      "relatives": 6856,
      "improp": 6857,
      "guide": 6858,
      "copies": 6859,
      "bloody": 6860,
      "khart": 6861,
      "consolid": 6862,
      "wider": 6863,
      "wides": 6864,
      "##iced": 6865,
      "##icut": 6866,
      "wholes": 6867,
      "##emic": 6868,
      "winners": 6869,
      "meters": 6870,
      "supposed": 6871,
      "goog": 6872,
      "restaur": 6873,
      "##atorial": 6874,
      "creation": 6875,
      "lowered": 6876,
      "domain": 6877,
      "connecticut": 6878,
      "learn": 6879,
      "cooper": 6880,
      "influence": 6881,
      "assassination": 6882,
      "napster": 6883,
      "wickets": 6884,
      "khartoum": 6885,
      "3rd": 6886,
      "bail": 6887,
      "kaz": 6888,
      "ot": 6889,
      "sends": 6890,
      "wing": 6891,
      "##oral": 6892,
      "stakes": 6893,
      "item": 6894,
      "##ifies": 6895,
      "presc": 6896,
      "disarm": 6897,
      "warn": 6898,
      "endang": 6899,
      "genoc": 6900,
      "barely": 6901,
      "trojan": 6902,
      "chargers": 6903,
      "angry": 6904,
      "homered": 6905,
      "typ": 6906,
      "easily": 6907,
      "murdo": 6908,
      "kenya": 6909,
      "flagship": 6910,
      "bosn": 6911,
      "iowa": 6912,
      "murdoch": 6913,
      "ia": 6914,
      "kil": 6915,
      "u2": 6916,
      "##cling": 6917,
      "##away": 6918,
      "##aka": 6919,
      "##ulated": 6920,
      "alt": 6921,
      "hav": 6922,
      "##endi": 6923,
      "blaz": 6924,
      "norway": 6925,
      "idg": 6926,
      "collaps": 6927,
      "confirm": 6928,
      "spotlight": 6929,
      "pricing": 6930,
      "definition": 6931,
      "blew": 6932,
      "phillies": 6933,
      "luxury": 6934,
      "mcdonald": 6935,
      "61": 6936,
      "79": 6937,
      "94": 6938,
      "jul": 6939,
      "##worth": 6940,
      "stir": 6941,
      "##chet": 6942,
      "existing": 6943,
      "alone": 6944,
      "exporters": 6945,
      "##ernand": 6946,
      "remove": 6947,
      "restore": 6948,
      "aiming": 6949,
      "pulls": 6950,
      "disputed": 6951,
      "rolling": 6952,
      "nato": 6953,
      "lcd": 6954,
      "gil": 6955,
      "lag": 6956,
      "##eed": 6957,
      "##western": 6958,
      "##urity": 6959,
      "unus": 6960,
      "enters": 6961,
      "##amped": 6962,
      "retreat": 6963,
      "capabilities": 6964,
      "emissions": 6965,
      "extending": 6966,
      "snap": 6967,
      "##ception": 6968,
      "bangal": 6969,
      "##ukee": 6970,
      "freedom": 6971,
      "integration": 6972,
      "knocked": 6973,
      "gathered": 6974,
      "teammates": 6975,
      "buffalo": 6976,
      "resistance": 6977,
      "eriks": 6978,
      "genocide": 6979,
      "ded": 6980,
      "eve": 6981,
      "kent": 6982,
      "rice": 6983,
      "sach": 6984,
      "##ali": 6985,
      "slowed": 6986,
      "asset": 6987,
      "someone": 6988,
      "advoc": 6989,
      "dominant": 6990,
      "civilian": 6991,
      "hyd": 6992,
      "journalist": 6993,
      "audio": 6994,
      "prospect": 6995,
      "kenneth": 6996,
      "lunar": 6997,
      "2nd": 6998,
      "beng": 6999,
      "ga": 7000,
      "md": 7001,
      "ren": 7002,
      "rio": 7003,
      "##wag": 7004,
      "toss": 7005,
      "shel": 7006,
      "##ections": 7007,
      "marc": 7008,
      "scene": 7009,
      "guarant": 7010,
      "processing": 7011,
      "revised": 7012,
      "pollution": 7013,
      "activists": 7014,
      "views": 7015,
      "sometimes": 7016,
      "library": 7017,
      "ferrari": 7018,
      "fossil": 7019,
      "museum": 7020,
      "bangalore": 7021,
      "luk": 7022,
      "ride": 7023,
      "wine": 7024,
      "wage": 7025,
      "##pread": 7026,
      "##wal": 7027,
      "##ario": 7028,
      "##agues": 7029,
      "##uls": 7030,
      "syn": 7031,
      "tested": 7032,
      "##ventus": 7033,
      "insurer": 7034,
      "loom": 7035,
      "healthy": 7036,
      "reserves": 7037,
      "juventus": 7038,
      "object": 7039,
      "cheap": 7040,
      "sweet": 7041,
      "athletes": 7042,
      "##whel": 7043,
      "opponent": 7044,
      "sparked": 7045,
      "##consin": 7046,
      "chemical": 7047,
      "wisconsin": 7048,
      "admits": 7049,
      "widespread": 7050,
      "eriksson": 7051,
      "##ych": 7052,
      "##kers": 7053,
      "##road": 7054,
      "comprom": 7055,
      "wash": 7056,
      "investments": 7057,
      "milwa": 7058,
      "febr": 7059,
      "signal": 7060,
      "##oking": 7061,
      "emot": 7062,
      "##eneg": 7063,
      "submar": 7064,
      "lineback": 7065,
      "realn": 7066,
      "employment": 7067,
      "panthers": 7068,
      "wildlife": 7069,
      "determine": 7070,
      "ambass": 7071,
      "necess": 7072,
      "piece": 7073,
      "aggressive": 7074,
      "hughes": 7075,
      "milwaukee": 7076,
      "february": 7077,
      "hell": 7078,
      "pino": 7079,
      "tas": 7080,
      "##ae": 7081,
      "##mal": 7082,
      "##mouth": 7083,
      "##gom": 7084,
      "##iracy": 7085,
      "chad": 7086,
      "arbit": 7087,
      "perman": 7088,
      "eli": 7089,
      "older": 7090,
      "detained": 7091,
      "##planes": 7092,
      "proposals": 7093,
      "arsene": 7094,
      "factories": 7095,
      "sexual": 7096,
      "granted": 7097,
      "execs": 7098,
      "baby": 7099,
      "fully": 7100,
      "realnetworks": 7101,
      "pinochet": 7102,
      "sight": 7103,
      "##bing": 7104,
      "##kel": 7105,
      "##state": 7106,
      "forg": 7107,
      "##istics": 7108,
      "bru": 7109,
      "notes": 7110,
      "suz": 7111,
      "victories": 7112,
      "idc": 7113,
      "portfol": 7114,
      "promote": 7115,
      "promising": 7116,
      "weakness": 7117,
      "montgom": 7118,
      "settled": 7119,
      "ricky": 7120,
      "heavily": 7121,
      "cert": 7122,
      "daim": 7123,
      "hire": 7124,
      "xinh": 7125,
      "##ez": 7126,
      "##gment": 7127,
      "##due": 7128,
      "##erve": 7129,
      "##ores": 7130,
      "##icient": 7131,
      "##astic": 7132,
      "places": 7133,
      "alco": 7134,
      "scan": 7135,
      "accom": 7136,
      "##ancy": 7137,
      "imposed": 7138,
      "mississ": 7139,
      "thrown": 7140,
      "ballots": 7141,
      "volume": 7142,
      "limits": 7143,
      "hunting": 7144,
      "jumps": 7145,
      "ramad": 7146,
      "diamondbacks": 7147,
      "suzuk": 7148,
      "daimler": 7149,
      "bc": 7150,
      "gop": 7151,
      "joy": 7152,
      "kee": 7153,
      "yell": 7154,
      "##ratings": 7155,
      "##words": 7156,
      "##gent": 7157,
      "##eries": 7158,
      "##atically": 7159,
      "exceed": 7160,
      "overwhel": 7161,
      "milose": 7162,
      "paypal": 7163,
      "suspic": 7164,
      "##ikh": 7165,
      "changing": 7166,
      "identified": 7167,
      "raids": 7168,
      "kenned": 7169,
      "fixed": 7170,
      "mutu": 7171,
      "santa": 7172,
      "learned": 7173,
      "daniel": 7174,
      "pharmaceutical": 7175,
      "ah": 7176,
      "lie": 7177,
      "lsu": 7178,
      "nag": 7179,
      "ramp": 7180,
      "tip": 7181,
      "##rant": 7182,
      "##tery": 7183,
      "proved": 7184,
      "interior": 7185,
      "orcl": 7186,
      "grows": 7187,
      "coverage": 7188,
      "flow": 7189,
      "slips": 7190,
      "##ounced": 7191,
      "##ological": 7192,
      "swap": 7193,
      "guy": 7194,
      "joh": 7195,
      "deport": 7196,
      "student": 7197,
      "rounds": 7198,
      "billions": 7199,
      "foreigners": 7200,
      "##itten": 7201,
      "pullout": 7202,
      "crashes": 7203,
      "athletic": 7204,
      "criticized": 7205,
      "seriously": 7206,
      "owens": 7207,
      "original": 7208,
      "northeastern": 7209,
      "throwing": 7210,
      "welcomed": 7211,
      "milosevic": 7212,
      "58": 7213,
      "fault": 7214,
      "nav": 7215,
      "##mos": 7216,
      "##rage": 7217,
      "##ulting": 7218,
      "unch": 7219,
      "adap": 7220,
      "weekly": 7221,
      "worked": 7222,
      "switzer": 7223,
      "buyers": 7224,
      "mete": 7225,
      "robust": 7226,
      "1999": 7227,
      "reveal": 7228,
      "reveals": 7229,
      "thinking": 7230,
      "description": 7231,
      "crowded": 7232,
      "earthquakes": 7233,
      "simply": 7234,
      "beheaded": 7235,
      "abducted": 7236,
      "laptop": 7237,
      "endangered": 7238,
      "hydro": 7239,
      "linebacker": 7240,
      "g5": 7241,
      "gay": 7242,
      "khan": 7243,
      "mits": 7244,
      "math": 7245,
      "nan": 7246,
      "##nic": 7247,
      "##holm": 7248,
      "##20": 7249,
      "##erie": 7250,
      "##illas": 7251,
      "worse": 7252,
      "##ellor": 7253,
      "cloud": 7254,
      "incent": 7255,
      "coordin": 7256,
      "highlight": 7257,
      "relay": 7258,
      "iron": 7259,
      "eds": 7260,
      "netfl": 7261,
      "devil": 7262,
      "equatorial": 7263,
      "##market": 7264,
      "psft": 7265,
      "andreas": 7266,
      "lebanese": 7267,
      "kids": 7268,
      "survivors": 7269,
      "mile": 7270,
      "nt": 7271,
      "soci": 7272,
      "##bek": 7273,
      "##po": 7274,
      "##uild": 7275,
      "newest": 7276,
      "plug": 7277,
      "##allah": 7278,
      "##igned": 7279,
      "##ogue": 7280,
      "buyout": 7281,
      "##prises": 7282,
      "12th": 7283,
      "beaten": 7284,
      "##place": 7285,
      "##anny": 7286,
      "controls": 7287,
      "visitors": 7288,
      "combined": 7289,
      "diplomatic": 7290,
      "astronaut": 7291,
      "pretty": 7292,
      "normal": 7293,
      "conspiracy": 7294,
      "lenovo": 7295,
      "opinion": 7296,
      "craft": 7297,
      "gib": 7298,
      "kir": 7299,
      "qantas": 7300,
      "rating": 7301,
      "tact": 7302,
      "##bon": 7303,
      "##dom": 7304,
      "##stan": 7305,
      "forget": 7306,
      "##chenko": 7307,
      "chanc": 7308,
      "##agers": 7309,
      "saving": 7310,
      "compat": 7311,
      "wealth": 7312,
      "indies": 7313,
      "blade": 7314,
      "##encing": 7315,
      "##fully": 7316,
      "146": 7317,
      "boycott": 7318,
      "celebrate": 7319,
      "pledges": 7320,
      "persu": 7321,
      "recommend": 7322,
      "orioles": 7323,
      "instruments": 7324,
      "determined": 7325,
      "taylor": 7326,
      "vivendi": 7327,
      "kennedy": 7328,
      "curs": 7329,
      "pad": 7330,
      "##lights": 7331,
      "##syl": 7332,
      "##eded": 7333,
      "##idia": 7334,
      "stuff": 7335,
      "offsh": 7336,
      "marion": 7337,
      "invit": 7338,
      "counting": 7339,
      "barb": 7340,
      "updated": 7341,
      "patrick": 7342,
      "submit": 7343,
      "wreck": 7344,
      "versus": 7345,
      "judges": 7346,
      "cheaper": 7347,
      "pennsyl": 7348,
      "stunning": 7349,
      "conservative": 7350,
      "cryst": 7351,
      "exhibition": 7352,
      "adjust": 7353,
      "mississippi": 7354,
      "switzerland": 7355,
      "netflix": 7356,
      "gig": 7357,
      "##organ": 7358,
      "##acter": 7359,
      "unix": 7360,
      "adam": 7361,
      "scam": 7362,
      "miners": 7363,
      "brothers": 7364,
      "maver": 7365,
      "troop": 7366,
      "hoped": 7367,
      "farm": 7368,
      "##adres": 7369,
      "insurgency": 7370,
      "checks": 7371,
      "priced": 7372,
      "2012": 7373,
      "replacement": 7374,
      "deadliest": 7375,
      "nvidia": 7376,
      "shadow": 7377,
      "exactly": 7378,
      "59": 7379,
      "hip": 7380,
      "icc": 7381,
      "sender": 7382,
      "wer": 7383,
      "##jet": 7384,
      "ones": 7385,
      "conway": 7386,
      "sean": 7387,
      "branson": 7388,
      "button": 7389,
      "downgr": 7390,
      "merrill": 7391,
      "enterprises": 7392,
      "violations": 7393,
      "revenge": 7394,
      "privacy": 7395,
      "mortar": 7396,
      "disappear": 7397,
      "newspapers": 7398,
      "ranks": 7399,
      "##bourne": 7400,
      "hubble": 7401,
      "dubai": 7402,
      "dot": 7403,
      "fill": 7404,
      "wish": 7405,
      "##ecl": 7406,
      "##acom": 7407,
      "shat": 7408,
      "##abe": 7409,
      "finland": 7410,
      "warri": 7411,
      "soared": 7412,
      "planets": 7413,
      "patrol": 7414,
      "actually": 7415,
      "closes": 7416,
      "gaining": 7417,
      "questioned": 7418,
      "restrict": 7419,
      "deployment": 7420,
      "politicians": 7421,
      "immig": 7422,
      "destruction": 7423,
      "pennsylvania": 7424,
      "ich": 7425,
      "nz": 7426,
      "ports": 7427,
      "pensions": 7428,
      "padres": 7429,
      "rot": 7430,
      "rental": 7431,
      "##overs": 7432,
      "spa": 7433,
      "plum": 7434,
      "##iable": 7435,
      "expensive": 7436,
      "killer": 7437,
      "mao": 7438,
      "##airn": 7439,
      "courts": 7440,
      "extrad": 7441,
      "demanded": 7442,
      "discip": 7443,
      "respect": 7444,
      "challenger": 7445,
      "junk": 7446,
      "independence": 7447,
      "commitment": 7448,
      "samarra": 7449,
      "scottish": 7450,
      "conduct": 7451,
      "establ": 7452,
      "lynch": 7453,
      "ovitz": 7454,
      "ambassador": 7455,
      "craw": 7456,
      "divers": 7457,
      "hed": 7458,
      "kris": 7459,
      "mv": 7460,
      "nc": 7461,
      "ntt": 7462,
      "native": 7463,
      "td": 7464,
      "##pur": 7465,
      "##eling": 7466,
      "comcast": 7467,
      "quarters": 7468,
      "peak": 7469,
      "slower": 7470,
      "meant": 7471,
      "satis": 7472,
      "walker": 7473,
      "dropping": 7474,
      "pope": 7475,
      "household": 7476,
      "massac": 7477,
      "aids": 7478,
      "##bridge": 7479,
      "function": 7480,
      "route": 7481,
      "melbourne": 7482,
      "village": 7483,
      "mourinho": 7484,
      "prompting": 7485,
      "belgium": 7486,
      "fenway": 7487,
      "portfolio": 7488,
      "bust": 7489,
      "pover": 7490,
      "rushing": 7491,
      "##tr": 7492,
      "##mon": 7493,
      "##inder": 7494,
      "##itely": 7495,
      "##ource": 7496,
      "##iev": 7497,
      "poland": 7498,
      "governing": 7499,
      "surr": 7500,
      "##ughter": 7501,
      "regime": 7502,
      "computerworld": 7503,
      "##lington": 7504,
      "rover": 7505,
      "draws": 7506,
      "severe": 7507,
      "techweb": 7508,
      "engineer": 7509,
      "##ipper": 7510,
      "humanitarian": 7511,
      "affect": 7512,
      "treaty": 7513,
      "strengthen": 7514,
      "connections": 7515,
      "feeling": 7516,
      "aziz": 7517,
      "establish": 7518,
      "congressional": 7519,
      "harvard": 7520,
      "bengals": 7521,
      "fu": 7522,
      "fol": 7523,
      "oks": 7524,
      "##cats": 7525,
      "##ono": 7526,
      "##isk": 7527,
      "##omet": 7528,
      "##ivir": 7529,
      "note": 7530,
      "manh": 7531,
      "phase": 7532,
      "defended": 7533,
      "impose": 7534,
      "managing": 7535,
      "southwest": 7536,
      "rocked": 7537,
      "baseman": 7538,
      "yankee": 7539,
      "##scar": 7540,
      "tourists": 7541,
      "malicious": 7542,
      "cybers": 7543,
      "gamers": 7544,
      "rodrig": 7545,
      "ukrainian": 7546,
      "settlers": 7547,
      "choose": 7548,
      "encoun": 7549,
      "subsidies": 7550,
      "ethnic": 7551,
      "derail": 7552,
      "quietly": 7553,
      "steroids": 7554,
      "temporary": 7555,
      "exclusive": 7556,
      "daimlerch": 7557,
      "poverty": 7558,
      "91": 7559,
      "ak": 7560,
      "buck": 7561,
      "jen": 7562,
      "kath": 7563,
      "##aron": 7564,
      "##enters": 7565,
      "##ala": 7566,
      "##rey": 7567,
      "##utch": 7568,
      "shed": 7569,
      "quits": 7570,
      "reporter": 7571,
      "intc": 7572,
      "abc": 7573,
      "economists": 7574,
      "trapped": 7575,
      "bombard": 7576,
      "antivir": 7577,
      "##print": 7578,
      "entering": 7579,
      "transform": 7580,
      "embarr": 7581,
      "clearing": 7582,
      "settlements": 7583,
      "triple": 7584,
      "introduces": 7585,
      "stalled": 7586,
      "surrounding": 7587,
      "organisation": 7588,
      "affairs": 7589,
      "kuwait": 7590,
      "daimlerchrysler": 7591,
      "embarrass": 7592,
      "00": 7593,
      "93": 7594,
      "langer": 7595,
      "wta": 7596,
      "asking": 7597,
      "height": 7598,
      "resident": 7599,
      "intended": 7600,
      "twin": 7601,
      "defender": 7602,
      "surging": 7603,
      "missiles": 7604,
      "midfielder": 7605,
      "straw": 7606,
      "authent": 7607,
      "cuban": 7608,
      "berth": 7609,
      "recovered": 7610,
      "prompted": 7611,
      "symbol": 7612,
      "regarding": 7613,
      "unrest": 7614,
      "enforcement": 7615,
      "antivirus": 7616,
      "1st": 7617,
      "dict": 7618,
      "filled": 7619,
      "gift": 7620,
      "ling": 7621,
      "lure": 7622,
      "mas": 7623,
      "pays": 7624,
      "##ien": 7625,
      "##dd": 7626,
      "stolen": 7627,
      "##ira": 7628,
      "##lying": 7629,
      "##quel": 7630,
      "outfielder": 7631,
      "scare": 7632,
      "notice": 7633,
      "eliot": 7634,
      "##ocked": 7635,
      "polish": 7636,
      "##coni": 7637,
      "swift": 7638,
      "debuts": 7639,
      "investigate": 7640,
      "rivalry": 7641,
      "portug": 7642,
      "type": 7643,
      "stormed": 7644,
      "guns": 7645,
      "buried": 7646,
      "hugo": 7647,
      "ramallah": 7648,
      "dawn": 7649,
      "impressive": 7650,
      "method": 7651,
      "mvp": 7652,
      "q3": 7653,
      "##bat": 7654,
      "##ean": 7655,
      "##fc": 7656,
      "##idays": 7657,
      "stood": 7658,
      "reign": 7659,
      "atop": 7660,
      "prol": 7661,
      "musab": 7662,
      "swapping": 7663,
      "tickets": 7664,
      "senator": 7665,
      "competing": 7666,
      "farmers": 7667,
      "artest": 7668,
      "convinc": 7669,
      "locked": 7670,
      "telling": 7671,
      "improvement": 7672,
      "fixing": 7673,
      "gmail": 7674,
      "mourning": 7675,
      "falcons": 7676,
      "quarterfinals": 7677,
      "yellow": 7678,
      "chancellor": 7679,
      "fals": 7680,
      "rup": 7681,
      "tensions": 7682,
      "##rate": 7683,
      "##mand": 7684,
      "##ila": 7685,
      "forcing": 7686,
      "##imax": 7687,
      "bear": 7688,
      "prominent": 7689,
      "##emark": 7690,
      "indicted": 7691,
      "ort": 7692,
      "elite": 7693,
      "moham": 7694,
      "electoral": 7695,
      "syrac": 7696,
      "recorded": 7697,
      "swept": 7698,
      "guards": 7699,
      "explain": 7700,
      "belar": 7701,
      "refin": 7702,
      "stockholm": 7703,
      "visa": 7704,
      "mys": 7705,
      "hammer": 7706,
      "ernie": 7707,
      "seeing": 7708,
      "##otten": 7709,
      "easing": 7710,
      "overturn": 7711,
      "kicked": 7712,
      "escape": 7713,
      "randy": 7714,
      "cosm": 7715,
      "venus": 7716,
      "concessions": 7717,
      "syracuse": 7718,
      "650": 7719,
      "97": 7720,
      "fab": 7721,
      "fame": 7722,
      "lived": 7723,
      "waves": 7724,
      "##stop": 7725,
      "##estyle": 7726,
      "marking": 7727,
      "medium": 7728,
      "signals": 7729,
      "greet": 7730,
      "rockies": 7731,
      "direction": 7732,
      "hamstr": 7733,
      "##week": 7734,
      "ships": 7735,
      "##ospace": 7736,
      "replaced": 7737,
      "captors": 7738,
      "christian": 7739,
      "automaker": 7740,
      "roma": 7741,
      "recalled": 7742,
      "survived": 7743,
      "49ers": 7744,
      "devastating": 7745,
      "minority": 7746,
      "destroyed": 7747,
      "mgm": 7748,
      "meteor": 7749,
      "crystal": 7750,
      "87": 7751,
      "fest": 7752,
      "hikes": 7753,
      "pages": 7754,
      "tear": 7755,
      "##iences": 7756,
      "##lecl": 7757,
      "##fit": 7758,
      "newratings": 7759,
      "hait": 7760,
      "colon": 7761,
      "medi": 7762,
      "urge": 7763,
      "wrest": 7764,
      "##lining": 7765,
      "buildings": 7766,
      "doublecl": 7767,
      "damaged": 7768,
      "emerge": 7769,
      "balance": 7770,
      "arrive": 7771,
      "##valley": 7772,
      "stripped": 7773,
      "shrug": 7774,
      "grizz": 7775,
      "representing": 7776,
      "teenager": 7777,
      "siliconvalley": 7778,
      "guidant": 7779,
      "cambodia": 7780,
      "pocket": 7781,
      "doubleclick": 7782,
      "83": 7783,
      "pour": 7784,
      "##ror": 7785,
      "##yang": 7786,
      "##aa": 7787,
      "##la": 7788,
      "chrysler": 7789,
      "##akh": 7790,
      "shape": 7791,
      "seats": 7792,
      "teach": 7793,
      "laid": 7794,
      "##oya": 7795,
      "11th": 7796,
      "breach": 7797,
      "supporting": 7798,
      "##mingham": 7799,
      "employers": 7800,
      "dominate": 7801,
      "happened": 7802,
      "disappoint": 7803,
      "##boro": 7804,
      "birmingham": 7805,
      "conducted": 7806,
      "disclosed": 7807,
      "complaint": 7808,
      "rwanda": 7809,
      "husband": 7810,
      "removed": 7811,
      "chaos": 7812,
      "society": 7813,
      "hide": 7814,
      "mood": 7815,
      "##tor": 7816,
      "toug": 7817,
      "##aying": 7818,
      "##rie": 7819,
      "upon": 7820,
      "slug": 7821,
      "workforce": 7822,
      "dealers": 7823,
      "billionaire": 7824,
      "finale": 7825,
      "singles": 7826,
      "urban": 7827,
      "standings": 7828,
      "michel": 7829,
      "philip": 7830,
      "matchup": 7831,
      "yanks": 7832,
      "##uggets": 7833,
      "arist": 7834,
      "valu": 7835,
      "suffer": 7836,
      "mexican": 7837,
      "recalls": 7838,
      "patches": 7839,
      "##ography": 7840,
      "liberty": 7841,
      "sleep": 7842,
      "dynam": 7843,
      "garden": 7844,
      "##mandu": 7845,
      "ortiz": 7846,
      "nuggets": 7847,
      "tort": 7848,
      "##icate": 7849,
      "##ecurity": 7850,
      "##ister": 7851,
      "abroad": 7852,
      "##ishi": 7853,
      "longest": 7854,
      "timber": 7855,
      "##eva": 7856,
      "shortage": 7857,
      "robinson": 7858,
      "simpl": 7859,
      "landed": 7860,
      "freshman": 7861,
      "pledge": 7862,
      "electricity": 7863,
      "jacksonville": 7864,
      "vulnerable": 7865,
      "savings": 7866,
      "punish": 7867,
      "wmt": 7868,
      "pioneer": 7869,
      "suddenly": 7870,
      "wholesale": 7871,
      "submarine": 7872,
      "hamstring": 7873,
      "gb": 7874,
      "honey": 7875,
      "kings": 7876,
      "thunder": 7877,
      "##atile": 7878,
      "anwar": 7879,
      "##omed": 7880,
      "stops": 7881,
      "##oses": 7882,
      "unkn": 7883,
      "##kswag": 7884,
      "hailed": 7885,
      "overcome": 7886,
      "intr": 7887,
      "fines": 7888,
      "196": 7889,
      "imag": 7890,
      "globe": 7891,
      "##comm": 7892,
      "listed": 7893,
      "trees": 7894,
      "volkswag": 7895,
      "favre": 7896,
      "louisville": 7897,
      "berlus": 7898,
      "350": 7899,
      "parliamentary": 7900,
      "boys": 7901,
      "salvation": 7902,
      "substant": 7903,
      "jamaica": 7904,
      "princip": 7905,
      "volkswagen": 7906,
      "900": 7907,
      "jol": 7908,
      "ni": 7909,
      "naz": 7910,
      "qb": 7911,
      "sar": 7912,
      "soun": 7913,
      "sights": 7914,
      "yug": 7915,
      "##mail": 7916,
      "tott": 7917,
      "##eces": 7918,
      "reward": 7919,
      "##raib": 7920,
      "##essor": 7921,
      "margin": 7922,
      "##ongyang": 7923,
      "gross": 7924,
      "finishing": 7925,
      "insists": 7926,
      "federation": 7927,
      "bidding": 7928,
      "urging": 7929,
      "speaking": 7930,
      "behav": 7931,
      "treo": 7932,
      "##news": 7933,
      "negative": 7934,
      "bayern": 7935,
      "tommy": 7936,
      "##brid": 7937,
      "louisiana": 7938,
      "eventually": 7939,
      "spokeswoman": 7940,
      "tribun": 7941,
      "ambitions": 7942,
      "accuses": 7943,
      "penalties": 7944,
      "ghraib": 7945,
      "guerrillas": 7946,
      "marriage": 7947,
      "various": 7948,
      "pyongyang": 7949,
      "unusual": 7950,
      "ichiro": 7951,
      "grizzlies": 7952,
      "berlusconi": 7953,
      "baker": 7954,
      "gill": 7955,
      "mud": 7956,
      "moss": 7957,
      "rent": 7958,
      "tree": 7959,
      "##equ": 7960,
      "##has": 7961,
      "##works": 7962,
      "thor": 7963,
      "##ateral": 7964,
      "##ita": 7965,
      "##essing": 7966,
      "queen": 7967,
      "worms": 7968,
      "incident": 7969,
      "intense": 7970,
      "##ubishi": 7971,
      "declines": 7972,
      "profession": 7973,
      "retain": 7974,
      "topp": 7975,
      "holmes": 7976,
      "holidays": 7977,
      "addition": 7978,
      "packed": 7979,
      "availability": 7980,
      "bells": 7981,
      "overshad": 7982,
      "inventory": 7983,
      "attendants": 7984,
      "belgian": 7985,
      "soyuz": 7986,
      "aerospace": 7987,
      "mitsubishi": 7988,
      "souness": 7989,
      "damp": 7990,
      "hague": 7991,
      "length": 7992,
      "pier": 7993,
      "rena": 7994,
      "wolf": 7995,
      "##mad": 7996,
      "##kok": 7997,
      "##zn": 7998,
      "unp": 7999,
      "que": 8000,
      "cloning": 8001,
      "reput": 8002,
      "bloc": 8003,
      "##isse": 8004,
      "warm": 8005,
      "##itsch": 8006,
      "wouldn": 8007,
      "##atched": 8008,
      "terry": 8009,
      "paraly": 8010,
      "##encia": 8011,
      "fee": 8012,
      "glitch": 8013,
      "posting": 8014,
      "grace": 8015,
      "verge": 8016,
      "desperate": 8017,
      "speedway": 8018,
      "withdrew": 8019,
      "telecoms": 8020,
      "bangkok": 8021,
      "pitc": 8022,
      "distribut": 8023,
      "grip": 8024,
      "madison": 8025,
      "eliminate": 8026,
      "massacre": 8027,
      "centers": 8028,
      "fis": 8029,
      "fuj": 8030,
      "mate": 8031,
      "nuke": 8032,
      "sort": 8033,
      "zook": 8034,
      "##armed": 8035,
      "stays": 8036,
      "##unction": 8037,
      "##andan": 8038,
      "unle": 8039,
      "saints": 8040,
      "serge": 8041,
      "##ampton": 8042,
      "##eyer": 8043,
      "syrian": 8044,
      "milestone": 8045,
      "delivers": 8046,
      "walked": 8047,
      "standoff": 8048,
      "clears": 8049,
      "blackburn": 8050,
      "eric": 8051,
      "cycling": 8052,
      "laboratory": 8053,
      "negotiators": 8054,
      "article": 8055,
      "probes": 8056,
      "intellect": 8057,
      "happen": 8058,
      "shawn": 8059,
      "ravaged": 8060,
      "weighed": 8061,
      "faith": 8062,
      "malaysian": 8063,
      "pounded": 8064,
      "mysterious": 8065,
      "transportation": 8066,
      "rapidly": 8067,
      "coffee": 8068,
      "aristide": 8069,
      "valuable": 8070,
      "fights": 8071,
      "kel": 8072,
      "##oa": 8073,
      "##uals": 8074,
      "##gets": 8075,
      "##enham": 8076,
      "##ality": 8077,
      "##rocess": 8078,
      "##ional": 8079,
      "stal": 8080,
      "unable": 8081,
      "sep": 8082,
      "##ineon": 8083,
      "infineon": 8084,
      "brewers": 8085,
      "directly": 8086,
      "##peg": 8087,
      "santander": 8088,
      "suggesting": 8089,
      "psych": 8090,
      "certainly": 8091,
      "animals": 8092,
      "monitoring": 8093,
      "observers": 8094,
      "tanks": 8095,
      "tribunal": 8096,
      "pitcairn": 8097,
      "bure": 8098,
      "fbi": 8099,
      "pu": 8100,
      "##rum": 8101,
      "##arch": 8102,
      "##acing": 8103,
      "agric": 8104,
      "clock": 8105,
      "bruce": 8106,
      "endors": 8107,
      "remark": 8108,
      "throws": 8109,
      "advice": 8110,
      "divided": 8111,
      "aides": 8112,
      "completing": 8113,
      "juan": 8114,
      "royals": 8115,
      "earnhard": 8116,
      "mistakes": 8117,
      "plunged": 8118,
      "replacing": 8119,
      "gdp": 8120,
      "particularly": 8121,
      "prescription": 8122,
      "montgomerie": 8123,
      "earnhardt": 8124,
      "bog": 8125,
      "eld": 8126,
      "mph": 8127,
      "mumb": 8128,
      "pd": 8129,
      "roster": 8130,
      "##rising": 8131,
      "##arks": 8132,
      "##ayer": 8133,
      "reop": 8134,
      "##ighter": 8135,
      "##agn": 8136,
      "overc": 8137,
      "supports": 8138,
      "120": 8139,
      "lowe": 8140,
      "##uja": 8141,
      "valencia": 8142,
      "##ippers": 8143,
      "rankings": 8144,
      "damasc": 8145,
      "lifting": 8146,
      "involvement": 8147,
      "answers": 8148,
      "observ": 8149,
      "taipe": 8150,
      "hawks": 8151,
      "teammate": 8152,
      "jonathan": 8153,
      "batteries": 8154,
      "##break": 8155,
      "iaea": 8156,
      "tougher": 8157,
      "damascus": 8158,
      "taipei": 8159,
      "aaron": 8160,
      "bp": 8161,
      "fidel": 8162,
      "hid": 8163,
      "ske": 8164,
      "##laim": 8165,
      "##wire": 8166,
      "##fr": 8167,
      "##ql": 8168,
      "stamp": 8169,
      "atmos": 8170,
      "shook": 8171,
      "lev": 8172,
      "##istent": 8173,
      "alaska": 8174,
      "clues": 8175,
      "quoted": 8176,
      "outcome": 8177,
      "##uez": 8178,
      "crunch": 8179,
      "warplanes": 8180,
      "schwar": 8181,
      "misses": 8182,
      "films": 8183,
      "hander": 8184,
      "aviv": 8185,
      "##afee": 8186,
      "##umps": 8187,
      "metro": 8188,
      "receiving": 8189,
      "revive": 8190,
      "malc": 8191,
      "hunger": 8192,
      "romania": 8193,
      "upgrades": 8194,
      "battling": 8195,
      "venezuelan": 8196,
      "honor": 8197,
      "gathering": 8198,
      "freddie": 8199,
      "soren": 8200,
      "uncertainty": 8201,
      "swimming": 8202,
      "kathmandu": 8203,
      "belarus": 8204,
      "tottenham": 8205,
      "atmosphere": 8206,
      "schwarz": 8207,
      "eta": 8208,
      "fake": 8209,
      "kur": 8210,
      "psp": 8211,
      "qwest": 8212,
      "rash": 8213,
      "xm": 8214,
      "zur": 8215,
      "##isive": 8216,
      "##echn": 8217,
      "plag": 8218,
      "click": 8219,
      "##udh": 8220,
      "expenses": 8221,
      "blocks": 8222,
      "manned": 8223,
      "commod": 8224,
      "downt": 8225,
      "impl": 8226,
      "genetic": 8227,
      "hosts": 8228,
      "wired": 8229,
      "formed": 8230,
      "pulling": 8231,
      "fueled": 8232,
      "purdue": 8233,
      "hybrid": 8234,
      "mercury": 8235,
      "estimate": 8236,
      "lying": 8237,
      "jointly": 8238,
      "indicated": 8239,
      "pursue": 8240,
      "govt": 8241,
      "enhance": 8242,
      "libraries": 8243,
      "grabbed": 8244,
      "sponsored": 8245,
      "occupied": 8246,
      "rafael": 8247,
      "unchanged": 8248,
      "malcolm": 8249,
      "eases": 8250,
      "ros": 8251,
      "ria": 8252,
      "##race": 8253,
      "##iya": 8254,
      "##aware": 8255,
      "##anim": 8256,
      "reass": 8257,
      "##umber": 8258,
      "interests": 8259,
      "tracks": 8260,
      "##ode": 8261,
      "microp": 8262,
      "soar": 8263,
      "palms": 8264,
      "troy": 8265,
      "##onym": 8266,
      "payroll": 8267,
      "handle": 8268,
      "actions": 8269,
      "closest": 8270,
      "bases": 8271,
      "doctor": 8272,
      "greenhouse": 8273,
      "damages": 8274,
      "dominance": 8275,
      "burst": 8276,
      "readies": 8277,
      "squee": 8278,
      "stayed": 8279,
      "appealed": 8280,
      "significantly": 8281,
      "undis": 8282,
      "stanford": 8283,
      "hornets": 8284,
      "improper": 8285,
      "permanent": 8286,
      "mumbai": 8287,
      "bamb": 8288,
      "caf": 8289,
      "dim": 8290,
      "erupted": 8291,
      "hil": 8292,
      "lam": 8293,
      "tender": 8294,
      "##wr": 8295,
      "##vis": 8296,
      "##stre": 8297,
      "##stra": 8298,
      "anx": 8299,
      "##opol": 8300,
      "frame": 8301,
      "presid": 8302,
      "consult": 8303,
      "cape": 8304,
      "##cont": 8305,
      "fedex": 8306,
      "linds": 8307,
      "viacom": 8308,
      "hitachi": 8309,
      "rebuild": 8310,
      "provision": 8311,
      "latin": 8312,
      "imminent": 8313,
      "publicly": 8314,
      "mcafee": 8315,
      "qualcomm": 8316,
      "tracking": 8317,
      "ranging": 8318,
      "surprised": 8319,
      "bhp": 8320,
      "error": 8321,
      "catholic": 8322,
      "necessary": 8323,
      "suzuki": 8324,
      "agricult": 8325,
      "zurich": 8326,
      "iyad": 8327,
      "kreme": 8328,
      "nab": 8329,
      "von": 8330,
      "##ram": 8331,
      "##rical": 8332,
      "##10": 8333,
      "##esco": 8334,
      "##eder": 8335,
      "ink": 8336,
      "sting": 8337,
      "beer": 8338,
      "usual": 8339,
      "##uded": 8340,
      "trucks": 8341,
      "buoy": 8342,
      "considers": 8343,
      "##irez": 8344,
      "fallen": 8345,
      "charging": 8346,
      "tradition": 8347,
      "deton": 8348,
      "mci": 8349,
      "erics": 8350,
      "junior": 8351,
      "fifa": 8352,
      "ramirez": 8353,
      "diplomat": 8354,
      "flew": 8355,
      "vulnerability": 8356,
      "medicine": 8357,
      "firewall": 8358,
      "dere": 8359,
      "dave": 8360,
      "ian": 8361,
      "icon": 8362,
      "##zed": 8363,
      "##repr": 8364,
      "##acts": 8365,
      "##empt": 8366,
      "alab": 8367,
      "slid": 8368,
      "assists": 8369,
      "drama": 8370,
      "homers": 8371,
      "portland": 8372,
      "embargo": 8373,
      "tvs": 8374,
      "silv": 8375,
      "popularity": 8376,
      "slowly": 8377,
      "1990s": 8378,
      "afford": 8379,
      "clinched": 8380,
      "filmmaker": 8381,
      "disappointed": 8382,
      "celebrated": 8383,
      "alexander": 8384,
      "ownership": 8385,
      "girls": 8386,
      "vulnerabilities": 8387,
      "symbian": 8388,
      "stanley": 8389,
      "lobby": 8390,
      "acknowledged": 8391,
      "items": 8392,
      "maoist": 8393,
      "krispy": 8394,
      "rodriguez": 8395,
      "reputation": 8396,
      "ericsson": 8397,
      "bold": 8398,
      "kiev": 8399,
      "nad": 8400,
      "pond": 8401,
      "ral": 8402,
      "rocks": 8403,
      "sick": 8404,
      "##card": 8405,
      "##stam": 8406,
      "##elie": 8407,
      "anderson": 8408,
      "proof": 8409,
      "print": 8410,
      "resh": 8411,
      "permission": 8412,
      "relatively": 8413,
      "schw": 8414,
      "scheme": 8415,
      "##atham": 8416,
      "##eeves": 8417,
      "chipmaker": 8418,
      "written": 8419,
      "videot": 8420,
      "contractor": 8421,
      "##efin": 8422,
      "equal": 8423,
      "supermarket": 8424,
      "barrels": 8425,
      "negotiating": 8426,
      "dvds": 8427,
      "##rington": 8428,
      "weighs": 8429,
      "animation": 8430,
      "houses": 8431,
      "floor": 8432,
      "odds": 8433,
      "repeated": 8434,
      "delegation": 8435,
      "grenade": 8436,
      "acceler": 8437,
      "exercise": 8438,
      "suspicion": 8439,
      "##echnology": 8440,
      "bash": 8441,
      "borrow": 8442,
      "cate": 8443,
      "gp": 8444,
      "jpeg": 8445,
      "rb": 8446,
      "##rand": 8447,
      "##yton": 8448,
      "thwart": 8449,
      "theory": 8450,
      "compound": 8451,
      "##ucky": 8452,
      "indo": 8453,
      "indefin": 8454,
      "blind": 8455,
      "austin": 8456,
      "undergo": 8457,
      "belong": 8458,
      "steep": 8459,
      "##iffs": 8460,
      "acquiring": 8461,
      "basis": 8462,
      "departure": 8463,
      "##attan": 8464,
      "paula": 8465,
      "nature": 8466,
      "bulls": 8467,
      "sitting": 8468,
      "meaning": 8469,
      "pursuit": 8470,
      "dialogue": 8471,
      "triggered": 8472,
      "klitsch": 8473,
      "rossi": 8474,
      "dhaka": 8475,
      "tycoon": 8476,
      "goran": 8477,
      "sorenstam": 8478,
      "hend": 8479,
      "ripped": 8480,
      "vanc": 8481,
      "yudh": 8482,
      "##body": 8483,
      "##rative": 8484,
      "##pose": 8485,
      "##uers": 8486,
      "##jo": 8487,
      "##ington": 8488,
      "##stri": 8489,
      "##ayers": 8490,
      "##ouver": 8491,
      "##ouri": 8492,
      "stable": 8493,
      "charter": 8494,
      "chosen": 8495,
      "enable": 8496,
      "ambit": 8497,
      "appoint": 8498,
      "soars": 8499,
      "##oyono": 8500,
      "releasing": 8501,
      "bombers": 8502,
      "bele": 8503,
      "costly": 8504,
      "volatile": 8505,
      "lyon": 8506,
      "keny": 8507,
      "counterfe": 8508,
      "learning": 8509,
      "liberal": 8510,
      "ronald": 8511,
      "adopt": 8512,
      "adopted": 8513,
      "condemned": 8514,
      "concluded": 8515,
      "inaugural": 8516,
      "detainees": 8517,
      "ontario": 8518,
      "unknown": 8519,
      "presidency": 8520,
      "categ": 8521,
      "klitschko": 8522,
      "yudhoyono": 8523,
      "98": 8524,
      "bah": 8525,
      "gang": 8526,
      "kurt": 8527,
      "##book": 8528,
      "##prom": 8529,
      "##power": 8530,
      "##iago": 8531,
      "##cr": 8532,
      "##gins": 8533,
      "##zone": 8534,
      "##ilateral": 8535,
      "##irts": 8536,
      "##osing": 8537,
      "##ules": 8538,
      "##ours": 8539,
      "uprising": 8540,
      "##ells": 8541,
      "##iform": 8542,
      "intention": 8543,
      "ark": 8544,
      "peyton": 8545,
      "attach": 8546,
      "surpass": 8547,
      "##phones": 8548,
      "longtime": 8549,
      "striking": 8550,
      "mids": 8551,
      "acquires": 8552,
      "harrington": 8553,
      "drawn": 8554,
      "skipper": 8555,
      "blocked": 8556,
      "temper": 8557,
      "##aguered": 8558,
      "siebel": 8559,
      "##standing": 8560,
      "sensitive": 8561,
      "conservation": 8562,
      "repeat": 8563,
      "tendul": 8564,
      "breeders": 8565,
      "casualties": 8566,
      "mickelson": 8567,
      "collapsed": 8568,
      "compromise": 8569,
      "offshore": 8570,
      "hedge": 8571,
      "renault": 8572,
      "fischer": 8573,
      "alabama": 8574,
      "vancouver": 8575,
      "ambitious": 8576,
      "beleaguered": 8577,
      "bm": 8578,
      "jar": 8579,
      "riot": 8580,
      "vari": 8581,
      "wicket": 8582,
      "##bucks": 8583,
      "##rants": 8584,
      "##eers": 8585,
      "##iy": 8586,
      "##ho": 8587,
      "##irt": 8588,
      "atp": 8589,
      "deg": 8590,
      "usually": 8591,
      "fract": 8592,
      "scen": 8593,
      "slows": 8594,
      "slams": 8595,
      "slashed": 8596,
      "parad": 8597,
      "regions": 8598,
      "##ultane": 8599,
      "##oked": 8600,
      "calend": 8601,
      "starbucks": 8602,
      "facilities": 8603,
      "##offs": 8604,
      "wells": 8605,
      "simultane": 8606,
      "prisoner": 8607,
      "bali": 8608,
      "cheer": 8609,
      "audience": 8610,
      "moments": 8611,
      "exploration": 8612,
      "telephony": 8613,
      "bernie": 8614,
      "magnitude": 8615,
      "elsewhere": 8616,
      "bloomberg": 8617,
      "exploit": 8618,
      "sustained": 8619,
      "experimental": 8620,
      "gazprom": 8621,
      "mavericks": 8622,
      "intellectual": 8623,
      "bounce": 8624,
      "mice": 8625,
      "meyer": 8626,
      "##part": 8627,
      "##tv": 8628,
      "##ja": 8629,
      "##acular": 8630,
      "unanim": 8631,
      "##ardy": 8632,
      "amate": 8633,
      "brett": 8634,
      "maur": 8635,
      "suits": 8636,
      "extreme": 8637,
      "rivers": 8638,
      "stepping": 8639,
      "custody": 8640,
      "##shire": 8641,
      "18th": 8642,
      "moderate": 8643,
      "embry": 8644,
      "graeme": 8645,
      "please": 8646,
      "premium": 8647,
      "##inction": 8648,
      "required": 8649,
      "reader": 8650,
      "agreeing": 8651,
      "mlb": 8652,
      "battery": 8653,
      "guidance": 8654,
      "cornerback": 8655,
      "spurrier": 8656,
      "multimedia": 8657,
      "kazakh": 8658,
      "palmsource": 8659,
      "tendulkar": 8660,
      "gem": 8661,
      "lith": 8662,
      "##bank": 8663,
      "##eer": 8664,
      "##fs": 8665,
      "##omp": 8666,
      "##utt": 8667,
      "conrad": 8668,
      "whales": 8669,
      "##umi": 8670,
      "##eller": 8671,
      "opter": 8672,
      "abuja": 8673,
      "telstra": 8674,
      "greg": 8675,
      "batting": 8676,
      "active": 8677,
      "label": 8678,
      "mcgr": 8679,
      "clubs": 8680,
      "panama": 8681,
      "##weg": 8682,
      "##resp": 8683,
      "arrival": 8684,
      "clinical": 8685,
      "santiago": 8686,
      "integrated": 8687,
      "dreamworks": 8688,
      "bargh": 8689,
      "laser": 8690,
      "physical": 8691,
      "favourite": 8692,
      "mahm": 8693,
      "canceled": 8694,
      "established": 8695,
      "professionals": 8696,
      "73": 8697,
      "diet": 8698,
      "kos": 8699,
      "lights": 8700,
      "luke": 8701,
      "pill": 8702,
      "sut": 8703,
      "sacked": 8704,
      "trem": 8705,
      "##tz": 8706,
      "##wolves": 8707,
      "##esl": 8708,
      "##onz": 8709,
      "##cepts": 8710,
      "conoc": 8711,
      "conven": 8712,
      "clippers": 8713,
      "slum": 8714,
      "carries": 8715,
      "reduction": 8716,
      "norweg": 8717,
      "bankers": 8718,
      "confront": 8719,
      "delaware": 8720,
      "goldman": 8721,
      "camps": 8722,
      "handling": 8723,
      "violating": 8724,
      "basic": 8725,
      "mails": 8726,
      "defeats": 8727,
      "funeral": 8728,
      "praise": 8729,
      "jamal": 8730,
      "wearing": 8731,
      "sacr": 8732,
      "culture": 8733,
      "conglom": 8734,
      "warriors": 8735,
      "timberwolves": 8736,
      "microprocess": 8737,
      "biz": 8738,
      "cargo": 8739,
      "danny": 8740,
      "eg": 8741,
      "fold": 8742,
      "hud": 8743,
      "jp": 8744,
      "kan": 8745,
      "wimb": 8746,
      "wimax": 8747,
      "##hs": 8748,
      "##itals": 8749,
      "regr": 8750,
      "intent": 8751,
      "abrupt": 8752,
      "feels": 8753,
      "agreements": 8754,
      "grade": 8755,
      "vikt": 8756,
      "southampton": 8757,
      "antar": 8758,
      "strongest": 8759,
      "supported": 8760,
      "maine": 8761,
      "desktops": 8762,
      "##amento": 8763,
      "travelers": 8764,
      "recovering": 8765,
      "matth": 8766,
      "crossing": 8767,
      "##ographic": 8768,
      "scramb": 8769,
      "animal": 8770,
      "neighbour": 8771,
      "reducing": 8772,
      "southeastern": 8773,
      "reaction": 8774,
      "hijack": 8775,
      "manhattan": 8776,
      "rupert": 8777,
      "##stream": 8778,
      "sacramento": 8779,
      "wimbled": 8780,
      "viktor": 8781,
      "cul": 8782,
      "fare": 8783,
      "gat": 8784,
      "jeeves": 8785,
      "mats": 8786,
      "villa": 8787,
      "##0m": 8788,
      "##inid": 8789,
      "##inct": 8790,
      "##ingly": 8791,
      "##itable": 8792,
      "stability": 8793,
      "forth": 8794,
      "##otive": 8795,
      "##rav": 8796,
      "asyl": 8797,
      "uncon": 8798,
      "unique": 8799,
      "spots": 8800,
      "excess": 8801,
      "##iano": 8802,
      "hispan": 8803,
      "exporter": 8804,
      "suns": 8805,
      "sov": 8806,
      "suing": 8807,
      "runner": 8808,
      "drink": 8809,
      "refere": 8810,
      "publishing": 8811,
      "patient": 8812,
      "digit": 8813,
      "harris": 8814,
      "mode": 8815,
      "campaigns": 8816,
      "journey": 8817,
      "celebration": 8818,
      "kingdom": 8819,
      "dreams": 8820,
      "awaits": 8821,
      "bolton": 8822,
      "ultim": 8823,
      "veterans": 8824,
      "lucrative": 8825,
      "mistake": 8826,
      "components": 8827,
      "transactions": 8828,
      "skept": 8829,
      "wimbledon": 8830,
      "asylum": 8831,
      "nfc": 8832,
      "pig": 8833,
      "thinks": 8834,
      "##ela": 8835,
      "##rain": 8836,
      "convers": 8837,
      "examp": 8838,
      "contain": 8839,
      "europeans": 8840,
      "parmal": 8841,
      "trio": 8842,
      "smooth": 8843,
      "operate": 8844,
      "continental": 8845,
      "studies": 8846,
      "specific": 8847,
      "##afi": 8848,
      "turmo": 8849,
      "cellphone": 8850,
      "tourism": 8851,
      "purport": 8852,
      "questionable": 8853,
      "automotive": 8854,
      "jeremy": 8855,
      "audit": 8856,
      "survival": 8857,
      "resumed": 8858,
      "shootout": 8859,
      "kidnapping": 8860,
      "virtually": 8861,
      "illness": 8862,
      "drought": 8863,
      "eleph": 8864,
      "slammed": 8865,
      "semifinal": 8866,
      "complaints": 8867,
      "devastated": 8868,
      "unfair": 8869,
      "spectacular": 8870,
      "jazz": 8871,
      "rigging": 8872,
      "abandoned": 8873,
      "reliever": 8874,
      "advocates": 8875,
      "arbitration": 8876,
      "overcame": 8877,
      "vonage": 8878,
      "derek": 8879,
      "norwegian": 8880,
      "parmalat": 8881,
      "turmoil": 8882,
      "denn": 8883,
      "fm": 8884,
      "hook": 8885,
      "ted": 8886,
      "##bell": 8887,
      "##hal": 8888,
      "##etooth": 8889,
      "chat": 8890,
      "##imony": 8891,
      "spoke": 8892,
      "abuses": 8893,
      "disgr": 8894,
      "##izz": 8895,
      "##izumi": 8896,
      "slain": 8897,
      "electrical": 8898,
      "dealing": 8899,
      "glory": 8900,
      "subur": 8901,
      "lowers": 8902,
      "##uctions": 8903,
      "shortly": 8904,
      "metal": 8905,
      "sne": 8906,
      "islamist": 8907,
      "policemen": 8908,
      "gunners": 8909,
      "pleas": 8910,
      "affili": 8911,
      "flooding": 8912,
      "rescuers": 8913,
      "frankfur": 8914,
      "scram": 8915,
      "charlie": 8916,
      "textile": 8917,
      "dubbed": 8918,
      "bluetooth": 8919,
      "rwandan": 8920,
      "achieve": 8921,
      "durable": 8922,
      "peterson": 8923,
      "mcnair": 8924,
      "##rahim": 8925,
      "adapters": 8926,
      "curse": 8927,
      "crawford": 8928,
      "encounter": 8929,
      "haitian": 8930,
      "plagued": 8931,
      "calendar": 8932,
      "amateur": 8933,
      "aa": 8934,
      "cri": 8935,
      "dinos": 8936,
      "fernand": 8937,
      "hers": 8938,
      "jb": 8939,
      "mouse": 8940,
      "none": 8941,
      "nbc": 8942,
      "rs": 8943,
      "rust": 8944,
      "waste": 8945,
      "##rent": 8946,
      "##rard": 8947,
      "##mates": 8948,
      "##icial": 8949,
      "amelie": 8950,
      "shared": 8951,
      "salary": 8952,
      "prefer": 8953,
      "youth": 8954,
      "ibrahim": 8955,
      "creates": 8956,
      "labels": 8957,
      "empire": 8958,
      "portal": 8959,
      "interested": 8960,
      "experiment": 8961,
      "towns": 8962,
      "circulation": 8963,
      "bullet": 8964,
      "koizumi": 8965,
      "llc": 8966,
      "sporting": 8967,
      "sandwich": 8968,
      "penning": 8969,
      "absence": 8970,
      "sidelined": 8971,
      "disruptions": 8972,
      "lukoil": 8973,
      "false": 8974,
      "lindsay": 8975,
      "schwab": 8976,
      "opteron": 8977,
      "conglomerate": 8978,
      "gators": 8979,
      "nj": 8980,
      "omar": 8981,
      "vince": 8982,
      "##mare": 8983,
      "##isan": 8984,
      "##olas": 8985,
      "asb": 8986,
      "uncover": 8987,
      "uniform": 8988,
      "lex": 8989,
      "monitors": 8990,
      "##ables": 8991,
      "secr": 8992,
      "##eps": 8993,
      "geneva": 8994,
      "talent": 8995,
      "glass": 8996,
      "halted": 8997,
      "nationals": 8998,
      "update3": 8999,
      "porto": 9000,
      "locust": 9001,
      "regulations": 9002,
      "activist": 9003,
      "factor": 9004,
      "negotiate": 9005,
      "conviction": 9006,
      "hyp": 9007,
      "creditors": 9008,
      "battled": 9009,
      "troubles": 9010,
      "##itutional": 9011,
      "innoc": 9012,
      "##lusion": 9013,
      "pieces": 9014,
      "jaguars": 9015,
      "abandon": 9016,
      "temporarily": 9017,
      "delegates": 9018,
      "correct": 9019,
      "frankfurt": 9020,
      "pennington": 9021,
      "ay": 9022,
      "cia": 9023,
      "pierce": 9024,
      "##rating": 9025,
      "##rino": 9026,
      "##ci": 9027,
      "##isman": 9028,
      "##eca": 9029,
      "alum": 9030,
      "intends": 9031,
      "serie": 9032,
      "101": 9033,
      "percentage": 9034,
      "nightmare": 9035,
      "underw": 9036,
      "missouri": 9037,
      "##enne": 9038,
      "edges": 9039,
      "brew": 9040,
      "owns": 9041,
      "specif": 9042,
      "communication": 9043,
      "universe": 9044,
      "treated": 9045,
      "volc": 9046,
      "plead": 9047,
      "burma": 9048,
      "affected": 9049,
      "##uffle": 9050,
      "shauk": 9051,
      "ambush": 9052,
      "switches": 9053,
      "lucent": 9054,
      "sparks": 9055,
      "fatal": 9056,
      "rebounded": 9057,
      "primary": 9058,
      "pharmaceuticals": 9059,
      "cybersecurity": 9060,
      "06": 9061,
      "eat": 9062,
      "ioc": 9063,
      "nich": 9064,
      "oreg": 9065,
      "yush": 9066,
      "##bird": 9067,
      "##bron": 9068,
      "##gun": 9069,
      "##rows": 9070,
      "##reh": 9071,
      "stone": 9072,
      "reviews": 9073,
      "##igation": 9074,
      "##estos": 9075,
      "proced": 9076,
      "shoo": 9077,
      "##ulating": 9078,
      "unders": 9079,
      "##asts": 9080,
      "wors": 9081,
      "clou": 9082,
      "##abb": 9083,
      "##anted": 9084,
      "grocer": 9085,
      "earns": 9086,
      "defic": 9087,
      "delight": 9088,
      "raw": 9089,
      "campus": 9090,
      "gerrard": 9091,
      "concert": 9092,
      "turf": 9093,
      "collect": 9094,
      "##neapolis": 9095,
      "loud": 9096,
      "wounds": 9097,
      "televisions": 9098,
      "weapon": 9099,
      "identify": 9100,
      "identification": 9101,
      "survive": 9102,
      "strokes": 9103,
      "selected": 9104,
      "willingham": 9105,
      "errors": 9106,
      "birthday": 9107,
      "ruud": 9108,
      "cartel": 9109,
      "sprinters": 9110,
      "withdrawn": 9111,
      "kirk": 9112,
      "persuade": 9113,
      "portsmouth": 9114,
      "cripp": 9115,
      "asbestos": 9116,
      "shaukat": 9117,
      "oregon": 9118,
      "03": 9119,
      "cook": 9120,
      "dup": 9121,
      "fo": 9122,
      "heral": 9123,
      "pix": 9124,
      "tum": 9125,
      "wn": 9126,
      "wool": 9127,
      "##trust": 9128,
      "##rex": 9129,
      "##acas": 9130,
      "##vey": 9131,
      "##osa": 9132,
      "##agger": 9133,
      "lean": 9134,
      "##apes": 9135,
      "seize": 9136,
      "clust": 9137,
      "adults": 9138,
      "truce": 9139,
      "lav": 9140,
      "minneapolis": 9141,
      "highlights": 9142,
      "declining": 9143,
      "moqtada": 9144,
      "served": 9145,
      "brokers": 9146,
      "imposs": 9147,
      "dealt": 9148,
      "glac": 9149,
      "steven": 9150,
      "eddie": 9151,
      "wright": 9152,
      "competitor": 9153,
      "strain": 9154,
      "astra": 9155,
      "opposed": 9156,
      "mills": 9157,
      "blockade": 9158,
      "duty": 9159,
      "importance": 9160,
      "fixes": 9161,
      "licenses": 9162,
      "platforms": 9163,
      "broadcasting": 9164,
      "skype": 9165,
      "thomson": 9166,
      "argentine": 9167,
      "spreading": 9168,
      "teenage": 9169,
      "colombian": 9170,
      "eccl": 9171,
      "printers": 9172,
      "rallies": 9173,
      "welcomes": 9174,
      "screensaver": 9175,
      "looms": 9176,
      "xinhua": 9177,
      "accompl": 9178,
      "incentives": 9179,
      "tactics": 9180,
      "wreckage": 9181,
      "soviet": 9182,
      "volcano": 9183,
      "yushchenko": 9184,
      "01": 9185,
      "cig": 9186,
      "ech": 9187,
      "ess": 9188,
      "giam": 9189,
      "gangu": 9190,
      "kicks": 9191,
      "lord": 9192,
      "mide": 9193,
      "rings": 9194,
      "##bul": 9195,
      "##iton": 9196,
      "forms": 9197,
      "reiter": 9198,
      "##char": 9199,
      "incumb": 9200,
      "##quille": 9201,
      "resorts": 9202,
      "twenty": 9203,
      "coke": 9204,
      "brink": 9205,
[...]
